{
  "version": "1.0",
  "truncation": null,
  "padding": null,
  "added_tokens": [
    {
      "id": 0,
      "content": "<pad>",
      "single_word": false,
      "lstrip": false,
      "rstrip": false,
      "normalized": false,
      "special": true
    },
    {
      "id": 1,
      "content": "<s>",
      "single_word": false,
      "lstrip": false,
      "rstrip": false,
      "normalized": false,
      "special": true
    },
    {
      "id": 2,
      "content": "</s>",
      "single_word": false,
      "lstrip": false,
      "rstrip": false,
      "normalized": false,
      "special": true
    }
  ],
  "normalizer": null,
  "pre_tokenizer": {
    "type": "Whitespace"
  },
  "post_processor": null,
  "decoder": null,
  "model": {
    "type": "BPE",
    "dropout": null,
    "unk_token": null,
    "continuing_subword_prefix": null,
    "end_of_word_suffix": null,
    "fuse_unk": false,
    "byte_fallback": false,
    "ignore_merges": false,
    "vocab": {
      "<pad>": 0,
      "<s>": 1,
      "</s>": 2,
      "!": 3,
      "\"": 4,
      "#": 5,
      "$": 6,
      "%": 7,
      "&": 8,
      "'": 9,
      "(": 10,
      ")": 11,
      "*": 12,
      "+": 13,
      ",": 14,
      "-": 15,
      ".": 16,
      "/": 17,
      "0": 18,
      "1": 19,
      "2": 20,
      "3": 21,
      "4": 22,
      "5": 23,
      "6": 24,
      "7": 25,
      "8": 26,
      "9": 27,
      ":": 28,
      ";": 29,
      "<": 30,
      "=": 31,
      ">": 32,
      "?": 33,
      "@": 34,
      "A": 35,
      "B": 36,
      "C": 37,
      "D": 38,
      "E": 39,
      "F": 40,
      "G": 41,
      "H": 42,
      "I": 43,
      "J": 44,
      "K": 45,
      "L": 46,
      "M": 47,
      "N": 48,
      "O": 49,
      "P": 50,
      "Q": 51,
      "R": 52,
      "S": 53,
      "T": 54,
      "U": 55,
      "V": 56,
      "W": 57,
      "X": 58,
      "Y": 59,
      "Z": 60,
      "[": 61,
      "\\": 62,
      "]": 63,
      "^": 64,
      "_": 65,
      "`": 66,
      "a": 67,
      "b": 68,
      "c": 69,
      "d": 70,
      "e": 71,
      "f": 72,
      "g": 73,
      "h": 74,
      "i": 75,
      "j": 76,
      "k": 77,
      "l": 78,
      "m": 79,
      "n": 80,
      "o": 81,
      "p": 82,
      "q": 83,
      "r": 84,
      "s": 85,
      "t": 86,
      "u": 87,
      "v": 88,
      "w": 89,
      "x": 90,
      "y": 91,
      "z": 92,
      "{": 93,
      "|": 94,
      "}": 95,
      "~": 96,
      "¡": 97,
      "¢": 98,
      "£": 99,
      "¦": 100,
      "¨": 101,
      "©": 102,
      "ª": 103,
      "«": 104,
      "¬": 105,
      "®": 106,
      "°": 107,
      "±": 108,
      "²": 109,
      "³": 110,
      "´": 111,
      "µ": 112,
      "¶": 113,
      "·": 114,
      "¸": 115,
      "¹": 116,
      "º": 117,
      "»": 118,
      "¼": 119,
      "½": 120,
      "¾": 121,
      "¿": 122,
      "À": 123,
      "Á": 124,
      "Â": 125,
      "Ã": 126,
      "Ä": 127,
      "Å": 128,
      "Æ": 129,
      "Ç": 130,
      "È": 131,
      "É": 132,
      "Ê": 133,
      "Ë": 134,
      "Ì": 135,
      "Í": 136,
      "Î": 137,
      "Ï": 138,
      "Ð": 139,
      "Ñ": 140,
      "Ò": 141,
      "Ó": 142,
      "Ô": 143,
      "Õ": 144,
      "Ö": 145,
      "×": 146,
      "Ø": 147,
      "Ù": 148,
      "Ú": 149,
      "Û": 150,
      "Ü": 151,
      "Ý": 152,
      "Þ": 153,
      "ß": 154,
      "à": 155,
      "á": 156,
      "â": 157,
      "ã": 158,
      "ä": 159,
      "å": 160,
      "æ": 161,
      "ç": 162,
      "è": 163,
      "é": 164,
      "ê": 165,
      "ë": 166,
      "ì": 167,
      "í": 168,
      "î": 169,
      "ï": 170,
      "ð": 171,
      "ñ": 172,
      "ò": 173,
      "ó": 174,
      "ô": 175,
      "õ": 176,
      "ö": 177,
      "ø": 178,
      "ù": 179,
      "ú": 180,
      "û": 181,
      "ü": 182,
      "ý": 183,
      "þ": 184,
      "ÿ": 185,
      "Ă": 186,
      "ă": 187,
      "č": 188,
      "Ō": 189,
      "ō": 190,
      "ő": 191,
      "œ": 192,
      "Ř": 193,
      "Ş": 194,
      "ş": 195,
      "š": 196,
      "Ţ": 197,
      "ţ": 198,
      "˜": 199,
      "Μ": 200,
      "ά": 201,
      "α": 202,
      "β": 203,
      "η": 204,
      "θ": 205,
      "μ": 206,
      "π": 207,
      "ρ": 208,
      "ς": 209,
      "τ": 210,
      "М": 211,
      "а": 212,
      "в": 213,
      "е": 214,
      "з": 215,
      "и": 216,
      "к": 217,
      "л": 218,
      "н": 219,
      "р": 220,
      "т": 221,
      "у": 222,
      "ц": 223,
      "ч": 224,
      "ш": 225,
      "ر": 226,
      "ع": 227,
      "م": 228,
      "ُ": 229,
      "۩": 230,
      "इ": 231,
      "घ": 232,
      "त": 233,
      "ा": 234,
      "े": 235,
      "​": 236,
      "‎": 237,
      "‐": 238,
      "–": 239,
      "—": 240,
      "―": 241,
      "‘": 242,
      "’": 243,
      "‚": 244,
      "“": 245,
      "”": 246,
      "•": 247,
      "…": 248,
      "‪": 249,
      "‬": 250,
      "‰": 251,
      "‹": 252,
      "›": 253,
      "‽": 254,
      "⁄": 255,
      "₪": 256,
      "₫": 257,
      "€": 258,
      "™": 259,
      "→": 260,
      "√": 261,
      "∞": 262,
      "∶": 263,
      "▲": 264,
      "▽": 265,
      "●": 266,
      "☺": 267,
      "♣": 268,
      "♥": 269,
      "♦": 270,
      "♫": 271,
      "⚡": 272,
      "「": 273,
      "」": 274,
      "い": 275,
      "う": 276,
      "お": 277,
      "さ": 278,
      "じ": 279,
      "た": 280,
      "ち": 281,
      "っ": 282,
      "な": 283,
      "に": 284,
      "の": 285,
      "め": 286,
      "ゃ": 287,
      "ょ": 288,
      "よ": 289,
      "れ": 290,
      "を": 291,
      "ん": 292,
      "ア": 293,
      "キ": 294,
      "ラ": 295,
      "一": 296,
      "三": 297,
      "不": 298,
      "世": 299,
      "人": 300,
      "住": 301,
      "便": 302,
      "公": 303,
      "営": 304,
      "地": 305,
      "坊": 306,
      "型": 307,
      "大": 308,
      "宅": 309,
      "害": 310,
      "弾": 311,
      "戦": 312,
      "所": 313,
      "新": 314,
      "材": 315,
      "次": 316,
      "汚": 317,
      "浄": 318,
      "溜": 319,
      "災": 320,
      "爆": 321,
      "界": 322,
      "禾": 323,
      "秒": 324,
      "第": 325,
      "肥": 326,
      "逸": 327,
      "離": 328,
      "": 329,
      "": 330,
      "": 331,
      "": 332,
      "": 333,
      "": 334,
      "": 335,
      "": 336,
      "": 337,
      "": 338,
      "": 339,
      "": 340,
      "": 341,
      "": 342,
      "": 343,
      "": 344,
      "": 345,
      "": 346,
      "": 347,
      "": 348,
      "": 349,
      "": 350,
      "": 351,
      "": 352,
      "": 353,
      "": 354,
      "": 355,
      "": 356,
      "": 357,
      "": 358,
      "": 359,
      "": 360,
      "": 361,
      "": 362,
      "": 363,
      "": 364,
      "": 365,
      "️": 366,
      "﻿": 367,
      "！": 368,
      "ﾉ": 369,
      "�": 370,
      "🎂": 371,
      "🏻": 372,
      "🐘": 373,
      "🐦": 374,
      "👏": 375,
      "💦": 376,
      "🗣": 377,
      "😃": 378,
      "😍": 379,
      "🙏": 380,
      "🤔": 381,
      "🤳": 382,
      "🥳": 383,
      "th": 384,
      "the": 385,
      "in": 386,
      "an": 387,
      "on": 388,
      "er": 389,
      "or": 390,
      "en": 391,
      "ti": 392,
      "re": 393,
      "of": 394,
      "al": 395,
      "ed": 396,
      "to": 397,
      "is": 398,
      "es": 399,
      "and": 400,
      "ou": 401,
      "tion": 402,
      "ing": 403,
      "at": 404,
      "ar": 405,
      "as": 406,
      "it": 407,
      "ic": 408,
      "le": 409,
      "ent": 410,
      "ro": 411,
      "be": 412,
      "se": 413,
      "il": 414,
      "for": 415,
      "he": 416,
      "ation": 417,
      "all": 418,
      "ve": 419,
      "st": 420,
      "ct": 421,
      "me": 422,
      "de": 423,
      "ch": 424,
      "su": 425,
      "ment": 426,
      "sh": 427,
      "co": 428,
      "ma": 429,
      "pro": 430,
      "lo": 431,
      "ce": 432,
      "con": 433,
      "per": 434,
      "ur": 435,
      "ra": 436,
      "no": 437,
      "ri": 438,
      "shall": 439,
      "un": 440,
      "ter": 441,
      "wh": 442,
      "you": 443,
      "id": 444,
      "ver": 445,
      "mp": 446,
      "The": 447,
      "ith": 448,
      "..": 449,
      "ol": 450,
      "te": 451,
      "ill": 452,
      "by": 453,
      "with": 454,
      "ction": 455,
      "ta": 456,
      "ha": 457,
      "ge": 458,
      "res": 459,
      "ir": 460,
      "ate": 461,
      "pe": 462,
      "ac": 463,
      "ad": 464,
      "od": 465,
      "ay": 466,
      "ul": 467,
      "ab": 468,
      "si": 469,
      "mm": 470,
      "that": 471,
      "ow": 472,
      "pl": 473,
      "ist": 474,
      "oun": 475,
      "ther": 476,
      "ex": 477,
      "not": 478,
      "der": 479,
      "are": 480,
      "will": 481,
      "us": 482,
      "ant": 483,
      "gh": 484,
      "ke": 485,
      "li": 486,
      "ess": 487,
      "ity": 488,
      "any": 489,
      "po": 490,
      "ci": 491,
      "ne": 492,
      "ap": 493,
      "fic": 494,
      "fi": 495,
      "ep": 496,
      "rom": 497,
      "ut": 498,
      "ly": 499,
      "ub": 500,
      "this": 501,
      "di": 502,
      "am": 503,
      "from": 504,
      "qu": 505,
      "his": 506,
      "im": 507,
      "we": 508,
      "son": 509,
      "du": 510,
      "ru": 511,
      "so": 512,
      "has": 513,
      "ere": 514,
      "ag": 515,
      "In": 516,
      "sa": 517,
      "our": 518,
      "out": 519,
      "ort": 520,
      "Se": 521,
      "over": 522,
      "mb": 523,
      "have": 524,
      "one": 525,
      "ard": 526,
      "ser": 527,
      "est": 528,
      "au": 529,
      "end": 530,
      "such": 531,
      "ah": 532,
      "who": 533,
      "wor": 534,
      "mo": 535,
      "pur": 536,
      "red": 537,
      "ye": 538,
      "ld": 539,
      "....": 540,
      "person": 541,
      "may": 542,
      "form": 543,
      "op": 544,
      "ion": 545,
      "do": 546,
      "ers": 547,
      "Nep": 548,
      "Nepal": 549,
      "comm": 550,
      "et": 551,
      "ven": 552,
      "ans": 553,
      "your": 554,
      "ame": 555,
      "ary": 556,
      "ll": 557,
      "other": 558,
      "ount": 559,
      "ure": 560,
      "ance": 561,
      "ry": 562,
      "ated": 563,
      "able": 564,
      "pres": 565,
      "vi": 566,
      "king": 567,
      "fe": 568,
      "up": 569,
      "ase": 570,
      "Sub": 571,
      "ric": 572,
      "sion": 573,
      "tain": 574,
      "art": 575,
      "comp": 576,
      "ght": 577,
      "man": 578,
      "gn": 579,
      "tit": 580,
      "him": 581,
      "lic": 582,
      "ties": 583,
      "was": 584,
      "fer": 585,
      "fa": 586,
      "int": 587,
      "cre": 588,
      "age": 589,
      "ich": 590,
      "pursu": 591,
      "je": 592,
      "velo": 593,
      "min": 594,
      "rib": 595,
      "ord": 596,
      "vic": 597,
      "fore": 598,
      "overn": 599,
      "velop": 600,
      "Co": 601,
      "pursuant": 602,
      "which": 603,
      "low": 604,
      "gra": 605,
      "ish": 606,
      "port": 607,
      "Th": 608,
      "them": 609,
      "Act": 610,
      "if": 611,
      "el": 612,
      "overnment": 613,
      "tra": 614,
      "sub": 615,
      "em": 616,
      "ud": 617,
      "under": 618,
      "cer": 619,
      "la": 620,
      "ous": 621,
      "val": 622,
      "tive": 623,
      "ctor": 624,
      "spe": 625,
      "fol": 626,
      "mber": 627,
      "pre": 628,
      "cess": 629,
      "ould": 630,
      "lect": 631,
      "there": 632,
      "vid": 633,
      "dis": 634,
      "Yah": 635,
      "To": 636,
      "gi": 637,
      "weh": 638,
      "Yahweh": 639,
      "go": 640,
      "rou": 641,
      "ved": 642,
      "velopment": 643,
      "been": 644,
      "her": 645,
      "ject": 646,
      "its": 647,
      "reg": 648,
      "my": 649,
      "iz": 650,
      "they": 651,
      "If": 652,
      "ution": 653,
      "ted": 654,
      "imp": 655,
      "ob": 656,
      "cur": 657,
      "tic": 658,
      "ty": 659,
      "fin": 660,
      "made": 661,
      "year": 662,
      "work": 663,
      "20": 664,
      "own": 665,
      "itte": 666,
      "their": 667,
      "ren": 668,
      "hi": 669,
      "ving": 670,
      "pri": 671,
      "ating": 672,
      "Comm": 673,
      "cu": 674,
      "ves": 675,
      "cl": 676,
      "ence": 677,
      "De": 678,
      "vice": 679,
      "acc": 680,
      "land": 681,
      "af": 682,
      "set": 683,
      "cial": 684,
      "ast": 685,
      "men": 686,
      "bo": 687,
      "ound": 688,
      "ittee": 689,
      "ip": 690,
      "day": 691,
      "Re": 692,
      "emp": 693,
      "ass": 694,
      "stit": 695,
      "Government": 696,
      "ain": 697,
      "ign": 698,
      "Pro": 699,
      "offic": 700,
      "ision": 701,
      "section": 702,
      "mit": 703,
      "ned": 704,
      "ong": 705,
      "ause": 706,
      "cent": 707,
      "ck": 708,
      "No": 709,
      "follow": 710,
      "ore": 711,
      "time": 712,
      "ef": 713,
      "ble": 714,
      "can": 715,
      "ail": 716,
      "tr": 717,
      "ind": 718,
      "said": 719,
      "par": 720,
      "cal": 721,
      "Section": 722,
      "ach": 723,
      "19": 724,
      "crib": 725,
      "edu": 726,
      "old": 727,
      "ild": 728,
      "pos": 729,
      "ine": 730,
      "but": 731,
      "ations": 732,
      "He": 733,
      "pr": 734,
      "ts": 735,
      "qui": 736,
      "ater": 737,
      "cribed": 738,
      "........": 739,
      "file": 740,
      "also": 741,
      "ings": 742,
      "name": 743,
      "ew": 744,
      "plic": 745,
      "ten": 746,
      "order": 747,
      "),": 748,
      "ments": 749,
      "progra": 750,
      "into": 751,
      "For": 752,
      "ces": 753,
      "stru": 754,
      "rel": 755,
      "make": 756,
      "wo": 757,
      "ree": 758,
      "00": 759,
      "peri": 760,
      "prescribed": 761,
      "This": 762,
      "ies": 763,
      "development": 764,
      "ok": 765,
      "nu": 766,
      "come": 767,
      "ffic": 768,
      "Wh": 769,
      "pub": 770,
      "emplo": 771,
      "were": 772,
      "concer": 773,
      "inter": 774,
      "lish": 775,
      "ange": 776,
      "Con": 777,
      "fun": 778,
      "way": 779,
      "ities": 780,
      "um": 781,
      "ational": 782,
      "God": 783,
      "ace": 784,
      "ise": 785,
      "oper": 786,
      "col": 787,
      "ank": 788,
      "cause": 789,
      "now": 790,
      "ack": 791,
      "dition": 792,
      "ang": 793,
      "ult": 794,
      "produ": 795,
      "exp": 796,
      "period": 797,
      "……": 798,
      "necess": 799,
      "ph": 800,
      "Bo": 801,
      "ission": 802,
      "service": 803,
      "ally": 804,
      "ile": 805,
      "again": 806,
      "ose": 807,
      "ense": 808,
      ".\"": 809,
      "ener": 810,
      "applic": 811,
      "after": 812,
      "Un": 813,
      "case": 814,
      "ority": 815,
      "stitution": 816,
      "sp": 817,
      "You": 818,
      "ms": 819,
      "ue": 820,
      "cont": 821,
      "rece": 822,
      "say": 823,
      "main": 824,
      "amount": 825,
      "following": 826,
      "des": 827,
      "sel": 828,
      "Pl": 829,
      "than": 830,
      "concerned": 831,
      "tific": 832,
      "more": 833,
      "rule": 834,
      "when": 835,
      "fied": 836,
      "ful": 837,
      "ting": 838,
      "Offic": 839,
      "within": 840,
      "vail": 841,
      "necessary": 842,
      "she": 843,
      "ouse": 844,
      "ople": 845,
      "ical": 846,
      "vision": 847,
      "dist": 848,
      "mon": 849,
      "means": 850,
      "car": 851,
      "use": 852,
      "requi": 853,
      "Committee": 854,
      "ules": 855,
      "gr": 856,
      "people": 857,
      "act": 858,
      "part": 859,
      "vel": 860,
      "trans": 861,
      "new": 862,
      "inv": 863,
      "mar": 864,
      "sy": 865,
      "ctions": 866,
      "stand": 867,
      "count": 868,
      "employe": 869,
      "ody": 870,
      "good": 871,
      "Ru": 872,
      "pt": 873,
      "point": 874,
      "fil": 875,
      "where": 876,
      "ho": 877,
      "istr": 878,
      "Ex": 879,
      "ever": 880,
      "speci": 881,
      "appro": 882,
      "Is": 883,
      "ari": 884,
      "Board": 885,
      "led": 886,
      "lement": 887,
      "before": 888,
      "project": 889,
      "hand": 890,
      "tained": 891,
      "ferred": 892,
      "ning": 893,
      "pow": 894,
      "dire": 895,
      "these": 896,
      "read": 897,
      "rough": 898,
      "formation": 899,
      "cted": 900,
      "cil": 901,
      "vided": 902,
      "mat": 903,
      "used": 904,
      "ters": 905,
      "word": 906,
      "ial": 907,
      "issu": 908,
      "ses": 909,
      "recei": 910,
      "Plan": 911,
      "gan": 912,
      "bas": 913,
      "ath": 914,
      "row": 915,
      "ak": 916,
      "om": 917,
      "pol": 918,
      "accord": 919,
      "--": 920,
      "ite": 921,
      "public": 922,
      "ouncil": 923,
      "por": 924,
      "Cha": 925,
      "through": 926,
      "arch": 927,
      "child": 928,
      "get": 929,
      "law": 930,
      "bu": 931,
      "ca": 932,
      "med": 933,
      "uring": 934,
      "incre": 935,
      "It": 936,
      "had": 937,
      "tab": 938,
      "ken": 939,
      "submit": 940,
      "dust": 941,
      "ight": 942,
      "sup": 943,
      "cor": 944,
      "ility": 945,
      "cy": 946,
      "rict": 947,
      "As": 948,
      "cap": 949,
      "hold": 950,
      "sur": 951,
      "fir": 952,
      "office": 953,
      "Rules": 954,
      "select": 955,
      "against": 956,
      "post": 957,
      "institution": 958,
      "application": 959,
      "Ch": 960,
      "An": 961,
      "house": 962,
      "only": 963,
      "und": 964,
      "list": 965,
      "number": 966,
      "Council": 967,
      "ress": 968,
      "Me": 969,
      "thing": 970,
      "years": 971,
      "thority": 972,
      "En": 973,
      "plan": 974,
      "put": 975,
      "know": 976,
      "place": 977,
      "meet": 978,
      "rael": 979,
      "Israel": 980,
      "given": 981,
      "ural": 982,
      "like": 983,
      "docu": 984,
      "stem": 985,
      "then": 986,
      "ear": 987,
      "sector": 988,
      "constru": 989,
      "cation": 990,
      "les": 991,
      "information": 992,
      "level": 993,
      "ness": 994,
      "Min": 995,
      "istration": 996,
      "urn": 997,
      "percent": 998,
      "vide": 999,
      "fac": 1000,
      "There": 1001,
      "ancial": 1002,
      "days": 1003,
      "play": 1004,
      "rent": 1005,
      "gy": 1006,
      "ust": 1007,
      "alth": 1008,
      "Ad": 1009,
      "body": 1010,
      "ctive": 1011,
      "referred": 1012,
      "less": 1013,
      "tice": 1014,
      "ave": 1015,
      "mage": 1016,
      "right": 1017,
      "ory": 1018,
      "ship": 1019,
      "key": 1020,
      "required": 1021,
      "date": 1022,
      "ror": 1023,
      "air": 1024,
      "add": 1025,
      "cons": 1026,
      "ister": 1027,
      "view": 1028,
      "organ": 1029,
      "off": 1030,
      "came": 1031,
      "program": 1032,
      "wr": 1033,
      "implement": 1034,
      "Mo": 1035,
      "license": 1036,
      ").": 1037,
      "employee": 1038,
      "pay": 1039,
      "ward": 1040,
      "went": 1041,
      "pen": 1042,
      "children": 1043,
      "Development": 1044,
      "those": 1045,
      "foreign": 1046,
      "ice": 1047,
      "indust": 1048,
      "should": 1049,
      "incl": 1050,
      "cri": 1051,
      "open": 1052,
      "Am": 1053,
      "give": 1054,
      "Au": 1055,
      "take": 1056,
      "government": 1057,
      "Rule": 1058,
      "gin": 1059,
      "dec": 1060,
      "ourt": 1061,
      "reas": 1062,
      "national": 1063,
      "sign": 1064,
      "self": 1065,
      "while": 1066,
      "system": 1067,
      "ute": 1068,
      "mes": 1069,
      "water": 1070,
      "financial": 1071,
      "estab": 1072,
      "pass": 1073,
      "br": 1074,
      "goods": 1075,
      "So": 1076,
      "establish": 1077,
      "two": 1078,
      "Sh": 1079,
      "Be": 1080,
      "down": 1081,
      "fra": 1082,
      "let": 1083,
      "unic": 1084,
      "vil": 1085,
      "vices": 1086,
      "tech": 1087,
      "pon": 1088,
      "does": 1089,
      "relating": 1090,
      "char": 1091,
      "Office": 1092,
      "hether": 1093,
      "ilities": 1094,
      "ext": 1095,
      "ced": 1096,
      "But": 1097,
      "local": 1098,
      "ils": 1099,
      "che": 1100,
      "high": 1101,
      "indow": 1102,
      "mention": 1103,
      "country": 1104,
      "termin": 1105,
      "committee": 1106,
      "comple": 1107,
      "valu": 1108,
      "qual": 1109,
      "taken": 1110,
      "They": 1111,
      "avail": 1112,
      "fo": 1113,
      "tal": 1114,
      "member": 1115,
      "change": 1116,
      "because": 1117,
      "Dist": 1118,
      "tex": 1119,
      "ries": 1120,
      "gener": 1121,
      "gu": 1122,
      "mmes": 1123,
      "reat": 1124,
      "about": 1125,
      "even": 1126,
      "Sch": 1127,
      "tificate": 1128,
      "cti": 1129,
      "road": 1130,
      "ese": 1131,
      "vo": 1132,
      "condu": 1133,
      "proper": 1134,
      "each": 1135,
      "present": 1136,
      "current": 1137,
      "acti": 1138,
      "enter": 1139,
      "import": 1140,
      "selected": 1141,
      "cord": 1142,
      "same": 1143,
      "Lo": 1144,
      "appoint": 1145,
      "ual": 1146,
      "illion": 1147,
      "text": 1148,
      "inst": 1149,
      "area": 1150,
      "ature": 1151,
      "itor": 1152,
      "during": 1153,
      "...": 1154,
      "lease": 1155,
      "ants": 1156,
      "being": 1157,
      "mission": 1158,
      "perform": 1159,
      "az": 1160,
      "ner": 1161,
      "roup": 1162,
      "provide": 1163,
      "ks": 1164,
      "eld": 1165,
      "making": 1166,
      "available": 1167,
      "meeting": 1168,
      "ining": 1169,
      "mbers": 1170,
      "first": 1171,
      "cret": 1172,
      "10": 1173,
      "well": 1174,
      "ization": 1175,
      "ital": 1176,
      "father": 1177,
      "found": 1178,
      "among": 1179,
      "includ": 1180,
      "specified": 1181,
      "ources": 1182,
      "some": 1183,
      "month": 1184,
      "call": 1185,
      "account": 1186,
      "cus": 1187,
      "programmes": 1188,
      "according": 1189,
      "edule": 1190,
      "econ": 1191,
      "cts": 1192,
      "istry": 1193,
      "St": 1194,
      "pa": 1195,
      "reason": 1196,
      "command": 1197,
      "without": 1198,
      "gation": 1199,
      "ousand": 1200,
      "ot": 1201,
      "vers": 1202,
      "ator": 1203,
      "report": 1204,
      "Could": 1205,
      "back": 1206,
      "Ar": 1207,
      "ates": 1208,
      "ular": 1209,
      "construction": 1210,
      "tial": 1211,
      "fy": 1212,
      "ire": 1213,
      "ents": 1214,
      "see": 1215,
      "received": 1216,
      "bank": 1217,
      "tax": 1218,
      "ative": 1219,
      "tor": 1220,
      "services": 1221,
      "District": 1222,
      "cho": 1223,
      "every": 1224,
      "window": 1225,
      "health": 1226,
      "sul": 1227,
      "search": 1228,
      "addition": 1229,
      "mess": 1230,
      "ages": 1231,
      "polic": 1232,
      "power": 1233,
      "til": 1234,
      "proc": 1235,
      "provided": 1236,
      "bet": 1237,
      "serv": 1238,
      "tar": 1239,
      "ffer": 1240,
      "offer": 1241,
      "decision": 1242,
      "did": 1243,
      "exce": 1244,
      "Not": 1245,
      "ricult": 1246,
      "................": 1247,
      "ized": 1248,
      "mentioned": 1249,
      "ret": 1250,
      "iness": 1251,
      "dat": 1252,
      "ply": 1253,
      "Ministry": 1254,
      ":-": 1255,
      "invest": 1256,
      "top": 1257,
      "want": 1258,
      "edi": 1259,
      "ges": 1260,
      "Schedule": 1261,
      "cle": 1262,
      "ide": 1263,
      "provision": 1264,
      "Dep": 1265,
      "folder": 1266,
      "clo": 1267,
      "entit": 1268,
      "remo": 1269,
      "sal": 1270,
      "sed": 1271,
      "carry": 1272,
      "notice": 1273,
      "effe": 1274,
      "exist": 1275,
      "secur": 1276,
      "bus": 1277,
      "Ser": 1278,
      "having": 1279,
      "line": 1280,
      "certificate": 1281,
      "sing": 1282,
      "standing": 1283,
      "need": 1284,
      "rate": 1285,
      "don": 1286,
      "ures": 1287,
      "motion": 1288,
      "Can": 1289,
      "condition": 1290,
      "image": 1291,
      "start": 1292,
      "appe": 1293,
      "cas": 1294,
      "tails": 1295,
      "lin": 1296,
      "allow": 1297,
      "bit": 1298,
      "tern": 1299,
      "book": 1300,
      "Chair": 1301,
      "ton": 1302,
      "Reg": 1303,
      "Select": 1304,
      "hic": 1305,
      "rol": 1306,
      "ft": 1307,
      "ys": 1308,
      "Ap": 1309,
      "distrib": 1310,
      "ulation": 1311,
      "nor": 1312,
      "tim": 1313,
      "functions": 1314,
      "vate": 1315,
      "register": 1316,
      "vari": 1317,
      "head": 1318,
      "ared": 1319,
      "199": 1320,
      "million": 1321,
      "ive": 1322,
      "sible": 1323,
      "ix": 1324,
      "group": 1325,
      "agement": 1326,
      "vehic": 1327,
      "here": 1328,
      "Bank": 1329,
      "deem": 1330,
      "process": 1331,
      "production": 1332,
      "artment": 1333,
      "pees": 1334,
      "Chairperson": 1335,
      "subject": 1336,
      "field": 1337,
      "Cor": 1338,
      "basis": 1339,
      "increas": 1340,
      "contra": 1341,
      "pose": 1342,
      "document": 1343,
      "vis": 1344,
      "When": 1345,
      "value": 1346,
      "vent": 1347,
      "determin": 1348,
      "bro": 1349,
      "very": 1350,
      "tions": 1351,
      "could": 1352,
      "Do": 1353,
      "Member": 1354,
      "long": 1355,
      "omic": 1356,
      "vities": 1357,
      "side": 1358,
      "Le": 1359,
      "color": 1360,
      "igh": 1361,
      "format": 1362,
      "projects": 1363,
      "Department": 1364,
      "sin": 1365,
      "Ma": 1366,
      "writ": 1367,
      "sent": 1368,
      "says": 1369,
      "ween": 1370,
      "range": 1371,
      "arm": 1372,
      "facilities": 1373,
      "authority": 1374,
      "Commission": 1375,
      "prof": 1376,
      "lection": 1377,
      "ss": 1378,
      "mand": 1379,
      "saying": 1380,
      "ination": 1381,
      "fig": 1382,
      "hol": 1383,
      "activities": 1384,
      "raw": 1385,
      "between": 1386,
      "Al": 1387,
      "operation": 1388,
      "fill": 1389,
      "ource": 1390,
      "unish": 1391,
      "valid": 1392,
      "fication": 1393,
      "done": 1394,
      "bi": 1395,
      "interest": 1396,
      "jo": 1397,
      "load": 1398,
      "persons": 1399,
      "related": 1400,
      "record": 1401,
      "temp": 1402,
      "fund": 1403,
      "three": 1404,
      "cip": 1405,
      "limit": 1406,
      "powers": 1407,
      "files": 1408,
      "economic": 1409,
      "hel": 1410,
      "cond": 1411,
      "would": 1412,
      "build": 1413,
      "Jud": 1414,
      "onment": 1415,
      "ground": 1416,
      "owner": 1417,
      "ens": 1418,
      "region": 1419,
      "undred": 1420,
      "works": 1421,
      "run": 1422,
      "respon": 1423,
      "programme": 1424,
      "ended": 1425,
      "action": 1426,
      "ze": 1427,
      "ried": 1428,
      "director": 1429,
      "anything": 1430,
      "training": 1431,
      "ars": 1432,
      "ency": 1433,
      "conne": 1434,
      "areas": 1435,
      "000": 1436,
      "requ": 1437,
      "using": 1438,
      "resources": 1439,
      "another": 1440,
      "prep": 1441,
      "total": 1442,
      "fault": 1443,
      "ked": 1444,
      "wise": 1445,
      "differ": 1446,
      "cretary": 1447,
      "One": 1448,
      "support": 1449,
      "Man": 1450,
      "state": 1451,
      "soci": 1452,
      "ris": 1453,
      "purpose": 1454,
      "Dire": 1455,
      "chang": 1456,
      "eng": 1457,
      "Please": 1458,
      "members": 1459,
      "agricult": 1460,
      "ie": 1461,
      "non": 1462,
      "ket": 1463,
      "publish": 1464,
      "ia": 1465,
      "show": 1466,
      "contained": 1467,
      "imum": 1468,
      "develop": 1469,
      "term": 1470,
      "techn": 1471,
      "ready": 1472,
      "increase": 1473,
      "Rel": 1474,
      "sit": 1475,
      "type": 1476,
      "Da": 1477,
      "things": 1478,
      "company": 1479,
      "tiz": 1480,
      "vehicle": 1481,
      "ublic": 1482,
      "…………": 1483,
      "Gener": 1484,
      "poration": 1485,
      "business": 1486,
      "mul": 1487,
      "consid": 1488,
      "Name": 1489,
      "ecu": 1490,
      "stud": 1491,
      "Authority": 1492,
      "ged": 1493,
      "sure": 1494,
      "great": 1495,
      "Cl": 1496,
      "iry": 1497,
      "elect": 1498,
      "pric": 1499,
      "als": 1500,
      "spo": 1501,
      "tru": 1502,
      "motor": 1503,
      "registration": 1504,
      "sult": 1505,
      "Now": 1506,
      "Spe": 1507,
      "details": 1508,
      "transport": 1509,
      "prevail": 1510,
      "ize": 1511,
      "ini": 1512,
      "200": 1513,
      "fam": 1514,
      "imm": 1515,
      "rest": 1516,
      "respe": 1517,
      "vir": 1518,
      "lay": 1519,
      "sk": 1520,
      "ability": 1521,
      "pra": 1522,
      "forth": 1523,
      "income": 1524,
      "reco": 1525,
      "urement": 1526,
      "ption": 1527,
      "data": 1528,
      "must": 1529,
      "five": 1530,
      "upon": 1531,
      "function": 1532,
      "Chap": 1533,
      "established": 1534,
      "cut": 1535,
      "display": 1536,
      "cop": 1537,
      "Court": 1538,
      "fix": 1539,
      "private": 1540,
      "ily": 1541,
      "Provided": 1542,
      "issue": 1543,
      "Er": 1544,
      "install": 1545,
      "exam": 1546,
      "sol": 1547,
      "Director": 1548,
      "ither": 1549,
      "iah": 1550,
      "punish": 1551,
      "All": 1552,
      "Rs": 1553,
      "thousand": 1554,
      "grow": 1555,
      "198": 1556,
      "Chapter": 1557,
      "remain": 1558,
      "sons": 1559,
      "sto": 1560,
      "server": 1561,
      "many": 1562,
      "matters": 1563,
      "property": 1564,
      "provid": 1565,
      "David": 1566,
      "away": 1567,
      "jud": 1568,
      "illage": 1569,
      "Officer": 1570,
      "log": 1571,
      "enc": 1572,
      "str": 1573,
      "issued": 1574,
      "ered": 1575,
      "Chi": 1576,
      "what": 1577,
      "ied": 1578,
      "officer": 1579,
      "Lord": 1580,
      "taining": 1581,
      "uch": 1582,
      "ird": 1583,
      "abo": 1584,
      "azet": 1585,
      "duties": 1586,
      "fine": 1587,
      "mer": 1588,
      "Then": 1589,
      "oc": 1590,
      "control": 1591,
      "called": 1592,
      "ited": 1593,
      "submitted": 1594,
      "Error": 1595,
      "rought": 1596,
      "withstanding": 1597,
      "evalu": 1598,
      "fail": 1599,
      "thereof": 1600,
      "Ac": 1601,
      "export": 1602,
      "different": 1603,
      "pop": 1604,
      "cost": 1605,
      "sett": 1606,
      "investment": 1607,
      "force": 1608,
      "ials": 1609,
      "whether": 1610,
      "har": 1611,
      "com": 1612,
      "Public": 1613,
      "deemed": 1614,
      "15": 1615,
      "already": 1616,
      "Set": 1617,
      "education": 1618,
      "various": 1619,
      "rep": 1620,
      "bor": 1621,
      "propos": 1622,
      "obje": 1623,
      "documents": 1624,
      "Corporation": 1625,
      "Fund": 1626,
      "Jes": 1627,
      "Chief": 1628,
      "rial": 1629,
      "four": 1630,
      "until": 1631,
      "assist": 1632,
      "error": 1633,
      "dele": 1634,
      "due": 1635,
      "mater": 1636,
      "Notwithstanding": 1637,
      "both": 1638,
      "option": 1639,
      "design": 1640,
      "earth": 1641,
      "keep": 1642,
      "civil": 1643,
      "General": 1644,
      "On": 1645,
      "Whi": 1646,
      "light": 1647,
      "laws": 1648,
      "rin": 1649,
      "aw": 1650,
      "kind": 1651,
      "recomm": 1652,
      "appropri": 1653,
      "ral": 1654,
      "security": 1655,
      "ori": 1656,
      "conduct": 1657,
      "therefore": 1658,
      "While": 1659,
      "ctives": 1660,
      "least": 1661,
      "prevailing": 1662,
      "11": 1663,
      "Pow": 1664,
      "city": 1665,
      "ivers": 1666,
      "approval": 1667,
      "ati": 1668,
      "brought": 1669,
      "lab": 1670,
      "enti": 1671,
      "left": 1672,
      "ders": 1673,
      "Ag": 1674,
      "dest": 1675,
      "uty": 1676,
      "Jer": 1677,
      "ond": 1678,
      "mail": 1679,
      "Where": 1680,
      "entity": 1681,
      "user": 1682,
      "create": 1683,
      "employees": 1684,
      "tification": 1685,
      "ough": 1686,
      "bility": 1687,
      "how": 1688,
      "policy": 1689,
      "12": 1690,
      "ately": 1691,
      "endment": 1692,
      "Af": 1693,
      "Use": 1694,
      "carried": 1695,
      "heart": 1696,
      "conditions": 1697,
      "hap": 1698,
      "bring": 1699,
      "og": 1700,
      "obtained": 1701,
      "contin": 1702,
      "special": 1703,
      "impro": 1704,
      "Or": 1705,
      "bar": 1706,
      "ality": 1707,
      "net": 1708,
      "might": 1709,
      "standard": 1710,
      "message": 1711,
      "plac": 1712,
      "life": 1713,
      "contract": 1714,
      "court": 1715,
      "help": 1716,
      "Date": 1717,
      "anch": 1718,
      "Service": 1719,
      "mis": 1720,
      "endit": 1721,
      "mod": 1722,
      "matic": 1723,
      "lick": 1724,
      "logy": 1725,
      "management": 1726,
      "find": 1727,
      "board": 1728,
      "sou": 1729,
      "ansa": 1730,
      "Rupees": 1731,
      "ash": 1732,
      "accordance": 1733,
      "food": 1734,
      "estim": 1735,
      "ountain": 1736,
      "most": 1737,
      "cannot": 1738,
      "brother": 1739,
      "default": 1740,
      "reement": 1741,
      "admin": 1742,
      "iversity": 1743,
      "Whether": 1744,
      "ask": 1745,
      "vey": 1746,
      "communic": 1747,
      "Dis": 1748,
      "manner": 1749,
      "Local": 1750,
      "att": 1751,
      "cast": 1752,
      "deli": 1753,
      "regard": 1754,
      "send": 1755,
      "address": 1756,
      "mal": 1757,
      "unicip": 1758,
      "Jo": 1759,
      "last": 1760,
      "Add": 1761,
      "Jesus": 1762,
      "custo": 1763,
      "ey": 1764,
      "depos": 1765,
      "Secretary": 1766,
      "bal": 1767,
      "employ": 1768,
      "Comp": 1769,
      "priest": 1770,
      "Cannot": 1771,
      "object": 1772,
      "rug": 1773,
      "ude": 1774,
      "sm": 1775,
      "gg": 1776,
      "uted": 1777,
      "request": 1778,
      "Clause": 1779,
      "nam": 1780,
      "fall": 1781,
      "permission": 1782,
      "edures": 1783,
      "selves": 1784,
      "Relating": 1785,
      "wi": 1786,
      "provisions": 1787,
      "words": 1788,
      "rop": 1789,
      "organization": 1790,
      "manag": 1791,
      "206": 1792,
      "district": 1793,
      "appropriate": 1794,
      "Go": 1795,
      "second": 1796,
      "ways": 1797,
      "25": 1798,
      "cases": 1799,
      "Other": 1800,
      "ors": 1801,
      "quali": 1802,
      "bl": 1803,
      "annu": 1804,
      "check": 1805,
      "Col": 1806,
      "ordin": 1807,
      "vironment": 1808,
      "kes": 1809,
      "class": 1810,
      "above": 1811,
      "table": 1812,
      "acity": 1813,
      "button": 1814,
      "ban": 1815,
      "eration": 1816,
      "Po": 1817,
      "tour": 1818,
      "ched": 1819,
      "quiry": 1820,
      "separ": 1821,
      "Sa": 1822,
      "hu": 1823,
      "additional": 1824,
      "hundred": 1825,
      "unity": 1826,
      "den": 1827,
      "recommend": 1828,
      "copy": 1829,
      "ism": 1830,
      "uration": 1831,
      "payment": 1832,
      "distribution": 1833,
      "She": 1834,
      "vered": 1835,
      "move": 1836,
      "item": 1837,
      "Tra": 1838,
      "venth": 1839,
      "eding": 1840,
      "arrange": 1841,
      "16": 1842,
      "Pre": 1843,
      "semb": 1844,
      "teach": 1845,
      "At": 1846,
      "promotion": 1847,
      "charge": 1848,
      "?\"": 1849,
      "ron": 1850,
      "parti": 1851,
      "ls": 1852,
      "Per": 1853,
      "Show": 1854,
      "held": 1855,
      "We": 1856,
      "roy": 1857,
      "cour": 1858,
      "ding": 1859,
      "Provision": 1860,
      "registered": 1861,
      "thor": 1862,
      "appointed": 1863,
      "market": 1864,
      "research": 1865,
      "technical": 1866,
      "possible": 1867,
      "ites": 1868,
      "Ab": 1869,
      "prin": 1870,
      "Tr": 1871,
      "ather": 1872,
      "mountain": 1873,
      "collect": 1874,
      "paid": 1875,
      "Te": 1876,
      "----": 1877,
      "ances": 1878,
      "follows": 1879,
      "Are": 1880,
      "transa": 1881,
      "tili": 1882,
      "University": 1883,
      "offering": 1884,
      "mid": 1885,
      "consu": 1886,
      "nal": 1887,
      "Therefore": 1888,
      "frame": 1889,
      "proble": 1890,
      "13": 1891,
      "terms": 1892,
      "prior": 1893,
      "chi": 1894,
      "took": 1895,
      "sha": 1896,
      "rigation": 1897,
      "whom": 1898,
      "bid": 1899,
      "dom": 1900,
      "Par": 1901,
      "Res": 1902,
      "prote": 1903,
      "urned": 1904,
      "New": 1905,
      "vol": 1906,
      "share": 1907,
      "Moses": 1908,
      "inspe": 1909,
      "expendit": 1910,
      "posi": 1911,
      "months": 1912,
      "didn": 1913,
      "18": 1914,
      "wit": 1915,
      "drin": 1916,
      "along": 1917,
      "Gazet": 1918,
      "cred": 1919,
      "cture": 1920,
      "trade": 1921,
      "vesti": 1922,
      "invol": 1923,
      "cir": 1924,
      "completed": 1925,
      "uses": 1926,
      "venue": 1927,
      "study": 1928,
      "Lic": 1929,
      "corpor": 1930,
      "face": 1931,
      "Village": 1932,
      "encement": 1933,
      "dit": 1934,
      "expe": 1935,
      "usal": 1936,
      "implementation": 1937,
      "Judah": 1938,
      "price": 1939,
      "capacity": 1940,
      "ines": 1941,
      "14": 1942,
      "just": 1943,
      "taking": 1944,
      "mode": 1945,
      "These": 1946,
      "duty": 1947,
      "Unable": 1948,
      "oura": 1949,
      "Cre": 1950,
      "commit": 1951,
      "Body": 1952,
      "augh": 1953,
      "answ": 1954,
      "ple": 1955,
      "population": 1956,
      "scho": 1957,
      "depart": 1958,
      "max": 1959,
      "agreement": 1960,
      "school": 1961,
      "bear": 1962,
      "resid": 1963,
      "Enter": 1964,
      "anim": 1965,
      "Five": 1966,
      "dri": 1967,
      "sen": 1968,
      "increased": 1969,
      "draw": 1970,
      "supply": 1971,
      "industries": 1972,
      "stitute": 1973,
      "wenty": 1974,
      "happen": 1975,
      "including": 1976,
      "Jerusal": 1977,
      "Jerusalem": 1978,
      "gl": 1979,
      "meas": 1980,
      "based": 1981,
      "da": 1982,
      "ick": 1983,
      "full": 1984,
      "cli": 1985,
      "sti": 1986,
      "save": 1987,
      "Cent": 1988,
      "eds": 1989,
      "general": 1990,
      "ben": 1991,
      "equ": 1992,
      "electric": 1993,
      "bre": 1994,
      "environment": 1995,
      "nology": 1996,
      "matter": 1997,
      "reng": 1998,
      "written": 1999,
      "mple": 2000,
      "lock": 2001,
      "Behold": 2002,
      "situ": 2003,
      "Egy": 2004,
      "alog": 2005,
      "box": 2006,
      "chair": 2007,
      "employment": 2008,
      "regular": 2009,
      "umn": 2010,
      "building": 2011,
      "respect": 2012,
      "materials": 2013,
      "bil": 2014,
      "lar": 2015,
      "ai": 2016,
      "print": 2017,
      "small": 2018,
      "Six": 2019,
      "tizen": 2020,
      "Municip": 2021,
      "contain": 2022,
      "config": 2023,
      "growth": 2024,
      "evaluation": 2025,
      "acce": 2026,
      "ecutive": 2027,
      "roll": 2028,
      "social": 2029,
      "dep": 2030,
      "DE": 2031,
      "etc": 2032,
      "capital": 2033,
      "creen": 2034,
      "return": 2035,
      "procurement": 2036,
      "forest": 2037,
      "clear": 2038,
      "surance": 2039,
      "industrial": 2040,
      "After": 2041,
      "National": 2042,
      "war": 2043,
      "lie": 2044,
      "sell": 2045,
      "inten": 2046,
      "hal": 2047,
      "effective": 2048,
      "Gazette": 2049,
      "How": 2050,
      "procedures": 2051,
      "assistance": 2052,
      "hear": 2053,
      "women": 2054,
      "existing": 2055,
      "leave": 2056,
      "nomin": 2057,
      "firm": 2058,
      "become": 2059,
      "maintain": 2060,
      "chief": 2061,
      "working": 2062,
      "ancell": 2063,
      "otherwise": 2064,
      "known": 2065,
      "Ta": 2066,
      "annual": 2067,
      "around": 2068,
      "corre": 2069,
      "ones": 2070,
      "sive": 2071,
      "Amendment": 2072,
      "gre": 2073,
      "framed": 2074,
      "sembly": 2075,
      "vity": 2076,
      "205": 2077,
      "wa": 2078,
      "operate": 2079,
      "angu": 2080,
      "grant": 2081,
      "Des": 2082,
      "source": 2083,
      "dio": 2084,
      "196": 2085,
      "drug": 2086,
      "eat": 2087,
      "fif": 2088,
      "ending": 2089,
      "changes": 2090,
      "tiliz": 2091,
      "test": 2092,
      "maj": 2093,
      "Emp": 2094,
      "comes": 2095,
      "fire": 2096,
      "camp": 2097,
      "cational": 2098,
      "agricultural": 2099,
      "Ne": 2100,
      "fl": 2101,
      "ering": 2102,
      "tool": 2103,
      "fee": 2104,
      "immedi": 2105,
      "inquiry": 2106,
      "met": 2107,
      "Any": 2108,
      "laim": 2109,
      "Pri": 2110,
      "ised": 2111,
      "session": 2112,
      "course": 2113,
      "Sy": 2114,
      "bond": 2115,
      "san": 2116,
      "column": 2117,
      "Some": 2118,
      "exchange": 2119,
      "tical": 2120,
      "mone": 2121,
      "ark": 2122,
      "relation": 2123,
      "determined": 2124,
      "stat": 2125,
      "consult": 2126,
      "graph": 2127,
      "particip": 2128,
      ".'": 2129,
      "gether": 2130,
      "neither": 2131,
      "With": 2132,
      "Rep": 2133,
      "directory": 2134,
      "Pr": 2135,
      "ences": 2136,
      "direct": 2137,
      "His": 2138,
      "proce": 2139,
      "irty": 2140,
      "size": 2141,
      "gal": 2142,
      "author": 2143,
      "Let": 2144,
      "version": 2145,
      "himself": 2146,
      "17": 2147,
      "aven": 2148,
      "toward": 2149,
      "teen": 2150,
      "abled": 2151,
      "kill": 2152,
      "accounts": 2153,
      "family": 2154,
      "mil": 2155,
      "auto": 2156,
      "dialog": 2157,
      "Create": 2158,
      "destroy": 2159,
      "daugh": 2160,
      "hor": 2161,
      "enses": 2162,
      "together": 2163,
      "tell": 2164,
      "renew": 2165,
      "gold": 2166,
      "prepared": 2167,
      "fulfill": 2168,
      "evid": 2169,
      "loss": 2170,
      "Fail": 2171,
      "implemented": 2172,
      "Open": 2173,
      "cription": 2174,
      "products": 2175,
      "six": 2176,
      "Seventh": 2177,
      "30": 2178,
      "survey": 2179,
      "failed": 2180,
      "try": 2181,
      "commer": 2182,
      "policies": 2183,
      "commencement": 2184,
      "cul": 2185,
      "seven": 2186,
      "saw": 2187,
      "wid": 2188,
      "spital": 2189,
      "ff": 2190,
      "Save": 2191,
      "gate": 2192,
      "Power": 2193,
      "vable": 2194,
      "ential": 2195,
      "represent": 2196,
      "divid": 2197,
      "formed": 2198,
      "yet": 2199,
      "communication": 2200,
      "lines": 2201,
      "tis": 2202,
      "look": 2203,
      "evil": 2204,
      "teous": 2205,
      "ticular": 2206,
      "providing": 2207,
      "next": 2208,
      "obtain": 2209,
      "international": 2210,
      "Admin": 2211,
      "ient": 2212,
      "stu": 2213,
      "short": 2214,
      "righ": 2215,
      "Inter": 2216,
      "ends": 2217,
      "accomp": 2218,
      "Mr": 2219,
      "heard": 2220,
      "lood": 2221,
      "maximum": 2222,
      "204": 2223,
      "technology": 2224,
      "remove": 2225,
      "Ph": 2226,
      "marks": 2227,
      "half": 2228,
      ",\"": 2229,
      "bur": 2230,
      "demand": 2231,
      "punishment": 2232,
      "cade": 2233,
      "expected": 2234,
      "Municipality": 2235,
      "write": 2236,
      "Ho": 2237,
      "ition": 2238,
      "irit": 2239,
      "cum": 2240,
      "Cer": 2241,
      "investi": 2242,
      "License": 2243,
      "50": 2244,
      "published": 2245,
      "righteous": 2246,
      "organiz": 2247,
      "target": 2248,
      "rid": 2249,
      "nel": 2250,
      "immediately": 2251,
      "ples": 2252,
      "industry": 2253,
      "ysical": 2254,
      "estimated": 2255,
      "KDE": 2256,
      "certain": 2257,
      "exceeding": 2258,
      "chairperson": 2259,
      "mor": 2260,
      "themselves": 2261,
      "farm": 2262,
      "Thousand": 2263,
      "stock": 2264,
      "Egypt": 2265,
      "map": 2266,
      "recommendation": 2267,
      "decl": 2268,
      "irrigation": 2269,
      "197": 2270,
      "page": 2271,
      "speak": 2272,
      "Land": 2273,
      "pack": 2274,
      "lit": 2275,
      "institutions": 2276,
      "conducted": 2277,
      "places": 2278,
      "cing": 2279,
      "rural": 2280,
      "Thus": 2281,
      "except": 2282,
      "compla": 2283,
      "Failed": 2284,
      "outh": 2285,
      "access": 2286,
      "performance": 2287,
      "Pol": 2288,
      "examination": 2289,
      "inte": 2290,
      "streng": 2291,
      "dies": 2292,
      "vious": 2293,
      "equip": 2294,
      "quality": 2295,
      "prepare": 2296,
      "Kath": 2297,
      "ined": 2298,
      "manager": 2299,
      "transfer": 2300,
      "conf": 2301,
      "ession": 2302,
      "central": 2303,
      "official": 2304,
      "statement": 2305,
      "ref": 2306,
      "associ": 2307,
      "Don": 2308,
      "susp": 2309,
      "particular": 2310,
      "cting": 2311,
      "plu": 2312,
      "Cont": 2313,
      "wal": 2314,
      "acts": 2315,
      "connection": 2316,
      "objectives": 2317,
      "Che": 2318,
      "mic": 2319,
      "ped": 2320,
      "What": 2321,
      "phe": 2322,
      "death": 2323,
      "position": 2324,
      "File": 2325,
      "Your": 2326,
      "permit": 2327,
      "Edu": 2328,
      "Ja": 2329,
      "My": 2330,
      "servant": 2331,
      "Ba": 2332,
      "thod": 2333,
      "sibility": 2334,
      "thentic": 2335,
      "adv": 2336,
      "promo": 2337,
      "langu": 2338,
      "ides": 2339,
      "achie": 2340,
      "mandu": 2341,
      "Fin": 2342,
      "vation": 2343,
      "Trans": 2344,
      "improve": 2345,
      "Acade": 2346,
      "priority": 2347,
      "expenditure": 2348,
      "gress": 2349,
      "adop": 2350,
      "factor": 2351,
      "rene": 2352,
      "setting": 2353,
      "encoura": 2354,
      "circum": 2355,
      "ons": 2356,
      "spoke": 2357,
      "receip": 2358,
      "medi": 2359,
      "included": 2360,
      "indic": 2361,
      "messages": 2362,
      "qualification": 2363,
      "commercial": 2364,
      "ricts": 2365,
      "specify": 2366,
      "offence": 2367,
      "tele": 2368,
      "curred": 2369,
      "Kathmandu": 2370,
      "odies": 2371,
      "During": 2372,
      "Sign": 2373,
      "claim": 2374,
      "tre": 2375,
      "atch": 2376,
      "rodu": 2377,
      "fees": 2378,
      "erc": 2379,
      "rit": 2380,
      "ins": 2381,
      "receive": 2382,
      "event": 2383,
      "aled": 2384,
      "fact": 2385,
      "fixed": 2386,
      "continu": 2387,
      "Bir": 2388,
      "require": 2389,
      "far": 2390,
      "rist": 2391,
      "astra": 2392,
      "increasing": 2393,
      "reneur": 2394,
      "Fif": 2395,
      "eas": 2396,
      "aster": 2397,
      "active": 2398,
      "near": 2399,
      "opport": 2400,
      "password": 2401,
      "repreneur": 2402,
      "Two": 2403,
      "path": 2404,
      "cell": 2405,
      "corporate": 2406,
      "situation": 2407,
      "ensation": 2408,
      "Imp": 2409,
      "higher": 2410,
      "nations": 2411,
      "third": 2412,
      "chan": 2413,
      "expenses": 2414,
      "aid": 2415,
      "ger": 2416,
      "agriculture": 2417,
      "Four": 2418,
      "ade": 2419,
      "citizen": 2420,
      "mother": 2421,
      ".,": 2422,
      "gave": 2423,
      "Emplo": 2424,
      "sc": 2425,
      "times": 2426,
      "redu": 2427,
      "plant": 2428,
      "saving": 2429,
      "fully": 2430,
      "Executive": 2431,
      "lack": 2432,
      "electricity": 2433,
      "Nu": 2434,
      "ley": 2435,
      "eyes": 2436,
      "tender": 2437,
      "Indi": 2438,
      "fathers": 2439,
      "approved": 2440,
      "governmental": 2441,
      "clean": 2442,
      "bud": 2443,
      "super": 2444,
      "context": 2445,
      "monitor": 2446,
      "entry": 2447,
      "lia": 2448,
      "applicant": 2449,
      "Christ": 2450,
      "ont": 2451,
      "suc": 2452,
      "free": 2453,
      "ety": 2454,
      "giving": 2455,
      "wife": 2456,
      "correct": 2457,
      "hy": 2458,
      "cies": 2459,
      "Je": 2460,
      "Wor": 2461,
      "card": 2462,
      "behold": 2463,
      "selection": 2464,
      "maintained": 2465,
      "entitled": 2466,
      "whose": 2467,
      "records": 2468,
      "receipt": 2469,
      "burn": 2470,
      "utiliz": 2471,
      "amounts": 2472,
      "lead": 2473,
      "world": 2474,
      "King": 2475,
      "ead": 2476,
      "sound": 2477,
      "ancy": 2478,
      "iscal": 2479,
      "exerc": 2480,
      "UR": 2481,
      "ills": 2482,
      "educational": 2483,
      "nominated": 2484,
      "Fun": 2485,
      "much": 2486,
      "mages": 2487,
      "live": 2488,
      "still": 2489,
      "hous": 2490,
      "ktop": 2491,
      "servants": 2492,
      "multi": 2493,
      "operated": 2494,
      "itation": 2495,
      "ross": 2496,
      "ques": 2497,
      "ber": 2498,
      "atta": 2499,
      "ished": 2500,
      "voice": 2501,
      "inf": 2502,
      "Nepalese": 2503,
      "separate": 2504,
      "screen": 2505,
      "Education": 2506,
      "loan": 2507,
      "Who": 2508,
      "appear": 2509,
      "evidence": 2510,
      "fare": 2511,
      "wel": 2512,
      "purch": 2513,
      "physical": 2514,
      "brothers": 2515,
      "Ci": 2516,
      "past": 2517,
      "rust": 2518,
      "Click": 2519,
      "Li": 2520,
      "ME": 2521,
      "role": 2522,
      "users": 2523,
      "happened": 2524,
      "24": 2525,
      "pes": 2526,
      "mach": 2527,
      "conta": 2528,
      "previous": 2529,
      "Rastra": 2530,
      "nat": 2531,
      "reli": 2532,
      "review": 2533,
      "apan": 2534,
      "created": 2535,
      "effect": 2536,
      "labour": 2537,
      "Cop": 2538,
      "money": 2539,
      "organizations": 2540,
      "esti": 2541,
      "mobil": 2542,
      "formul": 2543,
      "reasonable": 2544,
      "large": 2545,
      "below": 2546,
      "Progra": 2547,
      "enem": 2548,
      "introdu": 2549,
      "reach": 2550,
      "itself": 2551,
      "countries": 2552,
      "carrying": 2553,
      "deb": 2554,
      "youn": 2555,
      "exe": 2556,
      "cities": 2557,
      "appointment": 2558,
      "ticle": 2559,
      "holding": 2560,
      "filed": 2561,
      "installed": 2562,
      "Dele": 2563,
      "securities": 2564,
      "holy": 2565,
      "ict": 2566,
      "mi": 2567,
      "serve": 2568,
      "Provisions": 2569,
      "Fil": 2570,
      "mark": 2571,
      "Special": 2572,
      "complaint": 2573,
      "curren": 2574,
      "recogn": 2575,
      "charact": 2576,
      "ancellor": 2577,
      "uter": 2578,
      "prophe": 2579,
      "ledge": 2580,
      "21": 2581,
      "exten": 2582,
      "districts": 2583,
      "direction": 2584,
      "loc": 2585,
      "though": 2586,
      "laun": 2587,
      "menu": 2588,
      "Assembly": 2589,
      "twenty": 2590,
      "method": 2591,
      "completion": 2592,
      "utes": 2593,
      "sets": 2594,
      "since": 2595,
      "ek": 2596,
      "rem": 2597,
      "workers": 2598,
      "ternal": 2599,
      "configuration": 2600,
      "Administration": 2601,
      "rupees": 2602,
      "viol": 2603,
      "bodies": 2604,
      "treat": 2605,
      "Management": 2606,
      "pan": 2607,
      "irst": 2608,
      "letter": 2609,
      "servation": 2610,
      "allowed": 2611,
      "inde": 2612,
      "abase": 2613,
      "Ob": 2614,
      "bread": 2615,
      "ased": 2616,
      "mental": 2617,
      "discus": 2618,
      "sale": 2619,
      "developed": 2620,
      "rative": 2621,
      "going": 2622,
      "step": 2623,
      "proceed": 2624,
      "sci": 2625,
      "tri": 2626,
      "individ": 2627,
      "location": 2628,
      "Project": 2629,
      "Health": 2630,
      "origin": 2631,
      "ently": 2632,
      "stor": 2633,
      "aff": 2634,
      "effor": 2635,
      "proposal": 2636,
      "answered": 2637,
      "Ro": 2638,
      "fiscal": 2639,
      "god": 2640,
      "ison": 2641,
      "bel": 2642,
      "important": 2643,
      "legal": 2644,
      "Sixth": 2645,
      "complete": 2646,
      "values": 2647,
      "Gu": 2648,
      "ML": 2649,
      "istrative": 2650,
      "title": 2651,
      "profession": 2652,
      "transaction": 2653,
      "equipment": 2654,
      "sil": 2655,
      "rules": 2656,
      "revenue": 2657,
      "satis": 2658,
      "whole": 2659,
      "faith": 2660,
      "settings": 2661,
      "Signature": 2662,
      "Number": 2663,
      "turn": 2664,
      "heaven": 2665,
      "uneration": 2666,
      "woman": 2667,
      "iting": 2668,
      "peace": 2669,
      "space": 2670,
      "ig": 2671,
      "entrepreneur": 2672,
      "dead": 2673,
      "sum": 2674,
      "acqui": 2675,
      "affe": 2676,
      "compensation": 2677,
      "benef": 2678,
      "blood": 2679,
      "icked": 2680,
      "contrib": 2681,
      "Sen": 2682,
      "ilt": 2683,
      "constit": 2684,
      "ram": 2685,
      "concerning": 2686,
      "opened": 2687,
      "ify": 2688,
      "Amount": 2689,
      "commanded": 2690,
      "makes": 2691,
      "Indust": 2692,
      "tity": 2693,
      "prepar": 2694,
      "hands": 2695,
      "Japan": 2696,
      "ling": 2697,
      "unities": 2698,
      "Constitution": 2699,
      "By": 2700,
      "Sp": 2701,
      "Copy": 2702,
      "result": 2703,
      "belie": 2704,
      "tage": 2705,
      "sectors": 2706,
      "Check": 2707,
      "natural": 2708,
      "poses": 2709,
      "Ter": 2710,
      "border": 2711,
      "ging": 2712,
      "ring": 2713,
      "Applic": 2714,
      "initi": 2715,
      "omy": 2716,
      "plans": 2717,
      "Employe": 2718,
      "lives": 2719,
      "expedi": 2720,
      "Enable": 2721,
      "Area": 2722,
      "dy": 2723,
      "tition": 2724,
      "expres": 2725,
      "output": 2726,
      "internal": 2727,
      "matically": 2728,
      "credit": 2729,
      "plugin": 2730,
      "Academy": 2731,
      "Mar": 2732,
      "too": 2733,
      "urther": 2734,
      "quan": 2735,
      "layer": 2736,
      "sor": 2737,
      "roads": 2738,
      "intenance": 2739,
      "ery": 2740,
      "enterpr": 2741,
      "labor": 2742,
      "Sim": 2743,
      "gar": 2744,
      "pat": 2745,
      "tow": 2746,
      "changed": 2747,
      "individual": 2748,
      "portion": 2749,
      "Address": 2750,
      "scri": 2751,
      "defin": 2752,
      "writing": 2753,
      "involved": 2754,
      "mary": 2755,
      "presid": 2756,
      "party": 2757,
      "istrar": 2758,
      "Val": 2759,
      "hon": 2760,
      "cedure": 2761,
      "Cus": 2762,
      "scal": 2763,
      "outside": 2764,
      "desi": 2765,
      "problems": 2766,
      "ian": 2767,
      "real": 2768,
      "tail": 2769,
      "experi": 2770,
      "else": 2771,
      "facility": 2772,
      "keys": 2773,
      "bitr": 2774,
      "Custo": 2775,
      "dwell": 2776,
      "consist": 2777,
      "23": 2778,
      "job": 2779,
      "altar": 2780,
      "verse": 2781,
      "Account": 2782,
      "\".": 2783,
      "wicked": 2784,
      "def": 2785,
      "community": 2786,
      "aged": 2787,
      "Three": 2788,
      "requires": 2789,
      "specific": 2790,
      "includes": 2791,
      "designated": 2792,
      "Post": 2793,
      "bs": 2794,
      "broad": 2795,
      "dra": 2796,
      "shown": 2797,
      "!\"": 2798,
      "ps": 2799,
      "anal": 2800,
      "impris": 2801,
      "ittees": 2802,
      "coming": 2803,
      "committed": 2804,
      "images": 2805,
      "encies": 2806,
      "network": 2807,
      "Functions": 2808,
      "tify": 2809,
      "lower": 2810,
      "effic": 2811,
      "ior": 2812,
      "tention": 2813,
      "participation": 2814,
      "User": 2815,
      "esty": 2816,
      "obtaining": 2817,
      "close": 2818,
      "regional": 2819,
      "supported": 2820,
      "drinking": 2821,
      "circumst": 2822,
      "dro": 2823,
      "resol": 2824,
      "caused": 2825,
      "knowledge": 2826,
      "protection": 2827,
      "young": 2828,
      "28": 2829,
      "vac": 2830,
      "inion": 2831,
      "atory": 2832,
      "rights": 2833,
      "needs": 2834,
      "hara": 2835,
      "progress": 2836,
      "struct": 2837,
      "expand": 2838,
      "currently": 2839,
      "instead": 2840,
      "string": 2841,
      "language": 2842,
      "care": 2843,
      "fru": 2844,
      "lot": 2845,
      "Meet": 2846,
      "umb": 2847,
      "dig": 2848,
      "daughter": 2849,
      "ayat": 2850,
      "execu": 2851,
      "First": 2852,
      "mouth": 2853,
      "task": 2854,
      "pted": 2855,
      "uel": 2856,
      "resource": 2857,
      "vention": 2858,
      "computer": 2859,
      "suppl": 2860,
      "guar": 2861,
      "liament": 2862,
      "hect": 2863,
      "purposes": 2864,
      "followed": 2865,
      "human": 2866,
      "90": 2867,
      "Qu": 2868,
      "tle": 2869,
      "Ty": 2870,
      "identi": 2871,
      "kept": 2872,
      "performed": 2873,
      "salary": 2874,
      "crop": 2875,
      "became": 2876,
      "team": 2877,
      "herit": 2878,
      "home": 2879,
      "signed": 2880,
      "exists": 2881,
      "living": 2882,
      "doesn": 2883,
      "soul": 2884,
      "High": 2885,
      "Hundred": 2886,
      "built": 2887,
      "cash": 2888,
      "stood": 2889,
      "names": 2890,
      "endar": 2891,
      "Appe": 2892,
      "dedu": 2893,
      "compe": 2894,
      "ift": 2895,
      "tics": 2896,
      "parts": 2897,
      "ownership": 2898,
      "sword": 2899,
      "tock": 2900,
      "gets": 2901,
      "minimum": 2902,
      "economy": 2903,
      "started": 2904,
      "habit": 2905,
      "forever": 2906,
      "energy": 2907,
      "anchayat": 2908,
      "Color": 2909,
      "hour": 2910,
      "ustice": 2911,
      "Proc": 2912,
      "remote": 2913,
      "prac": 2914,
      "Saul": 2915,
      "Pe": 2916,
      "Sur": 2917,
      "ga": 2918,
      "male": 2919,
      "shares": 2920,
      "investigation": 2921,
      "furn": 2922,
      "inc": 2923,
      "abilities": 2924,
      "basic": 2925,
      "items": 2926,
      "abs": 2927,
      "audit": 2928,
      "impo": 2929,
      "Vice": 2930,
      "ns": 2931,
      "instru": 2932,
      "receiving": 2933,
      "asi": 2934,
      "Chancellor": 2935,
      "budget": 2936,
      "Vi": 2937,
      "cept": 2938,
      "ists": 2939,
      "ordination": 2940,
      "description": 2941,
      "appeal": 2942,
      "click": 2943,
      "ime": 2944,
      "adopted": 2945,
      "imprisonment": 2946,
      "cult": 2947,
      "fal": 2948,
      "thirty": 2949,
      "astru": 2950,
      "base": 2951,
      "reform": 2952,
      "served": 2953,
      "posts": 2954,
      "delete": 2955,
      "Fol": 2956,
      "rastru": 2957,
      "perman": 2958,
      "sky": 2959,
      "From": 2960,
      "nation": 2961,
      "ern": 2962,
      "ream": 2963,
      "love": 2964,
      "ighth": 2965,
      "priests": 2966,
      "jour": 2967,
      "respective": 2968,
      "objective": 2969,
      "deposit": 2970,
      "extension": 2971,
      "gment": 2972,
      "ier": 2973,
      "rie": 2974,
      "dic": 2975,
      "begin": 2976,
      "sea": 2977,
      "agency": 2978,
      "night": 2979,
      "opinion": 2980,
      "running": 2981,
      "balance": 2982,
      "Sam": 2983,
      "maintenance": 2984,
      "exper": 2985,
      "anger": 2986,
      "holder": 2987,
      "integr": 2988,
      "wall": 2989,
      "reasons": 2990,
      "logical": 2991,
      "administrative": 2992,
      "orary": 2993,
      "1991": 2994,
      "amp": 2995,
      "domes": 2996,
      "domestic": 2997,
      "tee": 2998,
      "limin": 2999,
      "offices": 3000,
      "hospital": 3001,
      "Cur": 3002,
      "reign": 3003,
      "saved": 3004,
      "Forest": 3005,
      "Maj": 3006,
      "depend": 3007,
      "Region": 3008,
      "false": 3009,
      "40": 3010,
      "vest": 3011,
      "disci": 3012,
      "licensee": 3013,
      "Sha": 3014,
      "ares": 3015,
      "late": 3016,
      "nature": 3017,
      "coll": 3018,
      "urban": 3019,
      "Insurance": 3020,
      "database": 3021,
      "determine": 3022,
      "casting": 3023,
      "\",": 3024,
      "Secur": 3025,
      "travel": 3026,
      "Config": 3027,
      "medical": 3028,
      "Centre": 3029,
      "status": 3030,
      "AP": 3031,
      "List": 3032,
      "sheet": 3033,
      "host": 3034,
      "match": 3035,
      "damage": 3036,
      "NO": 3037,
      "final": 3038,
      "trust": 3039,
      "witch": 3040,
      "glory": 3041,
      "26": 3042,
      "input": 3043,
      "ises": 3044,
      "icial": 3045,
      "quar": 3046,
      "commission": 3047,
      "constructed": 3048,
      "Parliament": 3049,
      "efforts": 3050,
      "):": 3051,
      "bless": 3052,
      "nothing": 3053,
      "police": 3054,
      "signature": 3055,
      "Registration": 3056,
      "Tax": 3057,
      "Jaco": 3058,
      "Edit": 3059,
      "oth": 3060,
      "cover": 3061,
      "added": 3062,
      "arrangements": 3063,
      "problem": 3064,
      "remuneration": 3065,
      "ific": 3066,
      "simil": 3067,
      "manu": 3068,
      "exercise": 3069,
      "band": 3070,
      "sold": 3071,
      "laid": 3072,
      "filter": 3073,
      "custom": 3074,
      "thin": 3075,
      "conver": 3076,
      "pho": 3077,
      "Associ": 3078,
      "resident": 3079,
      "Print": 3080,
      "fut": 3081,
      "tree": 3082,
      "fair": 3083,
      "Pho": 3084,
      "gis": 3085,
      "ports": 3086,
      "programs": 3087,
      "true": 3088,
      "success": 3089,
      "infrastru": 3090,
      "seen": 3091,
      "quid": 3092,
      "lesh": 3093,
      "hereby": 3094,
      "Jacob": 3095,
      "AR": 3096,
      "Sup": 3097,
      "cra": 3098,
      "game": 3099,
      "trib": 3100,
      "invalid": 3101,
      "primary": 3102,
      "remaining": 3103,
      "directly": 3104,
      "Phil": 3105,
      "Bu": 3106,
      "Image": 3107,
      "sche": 3108,
      "ought": 3109,
      "Change": 3110,
      "amongst": 3111,
      "orient": 3112,
      "Agricult": 3113,
      "flesh": 3114,
      "han": 3115,
      "sess": 3116,
      "alter": 3117,
      "authentic": 3118,
      "animal": 3119,
      "Import": 3120,
      "treatment": 3121,
      "proceedings": 3122,
      "May": 3123,
      "lear": 3124,
      "sty": 3125,
      "presence": 3126,
      "Su": 3127,
      "ull": 3128,
      "Note": 3129,
      "postal": 3130,
      "Meeting": 3131,
      "ba": 3132,
      "etent": 3133,
      "choose": 3134,
      "groups": 3135,
      "responsibility": 3136,
      "ample": 3137,
      "manpower": 3138,
      "Of": 3139,
      "tw": 3140,
      "major": 3141,
      "60": 3142,
      "Search": 3143,
      "operating": 3144,
      "constituted": 3145,
      "similar": 3146,
      "Photo": 3147,
      "100": 3148,
      "Trust": 3149,
      "arbitr": 3150,
      "structure": 3151,
      "Powers": 3152,
      "arrangement": 3153,
      "midst": 3154,
      "forward": 3155,
      "subst": 3156,
      "Minister": 3157,
      "returned": 3158,
      "fields": 3159,
      "Certificate": 3160,
      "actions": 3161,
      "cate": 3162,
      "once": 3163,
      "device": 3164,
      "passed": 3165,
      "tourism": 3166,
      "India": 3167,
      "cry": 3168,
      "na": 3169,
      "atter": 3170,
      "sight": 3171,
      "bot": 3172,
      "continue": 3173,
      "However": 3174,
      "liable": 3175,
      "essential": 3176,
      "Display": 3177,
      "ung": 3178,
      "lands": 3179,
      "Short": 3180,
      "proposed": 3181,
      "equal": 3182,
      "aron": 3183,
      "Law": 3184,
      "sever": 3185,
      "code": 3186,
      "els": 3187,
      "empty": 3188,
      "entered": 3189,
      "background": 3190,
      "considered": 3191,
      "achieve": 3192,
      "Pres": 3193,
      "necessity": 3194,
      "metric": 3195,
      "22": 3196,
      "Group": 3197,
      "Ten": 3198,
      "font": 3199,
      "hist": 3200,
      "upto": 3201,
      "cub": 3202,
      "bey": 3203,
      "listen": 3204,
      "ded": 3205,
      "wra": 3206,
      "seem": 3207,
      "ney": 3208,
      "ticles": 3209,
      "ditional": 3210,
      "link": 3211,
      "strong": 3212,
      "ename": 3213,
      "liability": 3214,
      "died": 3215,
      "que": 3216,
      "press": 3217,
      "planning": 3218,
      "seek": 3219,
      "regarding": 3220,
      "Polic": 3221,
      "ping": 3222,
      "render": 3223,
      "Why": 3224,
      "joint": 3225,
      "houses": 3226,
      "photo": 3227,
      "Aud": 3228,
      "Out": 3229,
      "tified": 3230,
      "resul": 3231,
      "stri": 3232,
      "Information": 3233,
      "fear": 3234,
      "appears": 3235,
      "ID": 3236,
      "site": 3237,
      "born": 3238,
      "further": 3239,
      "filled": 3240,
      "deliver": 3241,
      "pict": 3242,
      "ane": 3243,
      "told": 3244,
      "assi": 3245,
      "windows": 3246,
      "drink": 3247,
      "discussion": 3248,
      "Aaron": 3249,
      "Du": 3250,
      "Pa": 3251,
      "levi": 3252,
      "video": 3253,
      "inspection": 3254,
      "fifty": 3255,
      "contact": 3256,
      "stop": 3257,
      "aries": 3258,
      "secretary": 3259,
      "profit": 3260,
      "studies": 3261,
      "ield": 3262,
      "later": 3263,
      "waste": 3264,
      "desktop": 3265,
      "Registrar": 3266,
      "Dat": 3267,
      "ds": 3268,
      "ani": 3269,
      "extra": 3270,
      "few": 3271,
      "gradu": 3272,
      "delivered": 3273,
      "lt": 3274,
      "mouse": 3275,
      "ste": 3276,
      "Third": 3277,
      "encry": 3278,
      "Wel": 3279,
      "turned": 3280,
      "summ": 3281,
      "joy": 3282,
      "regions": 3283,
      "Speak": 3284,
      "URL": 3285,
      "Association": 3286,
      "Jan": 3287,
      "poor": 3288,
      "expan": 3289,
      "burnt": 3290,
      "Key": 3291,
      "pread": 3292,
      "limited": 3293,
      "prices": 3294,
      "little": 3295,
      "va": 3296,
      "conferred": 3297,
      "collection": 3298,
      "produced": 3299,
      "cretari": 3300,
      "transactions": 3301,
      "authorized": 3302,
      "renewal": 3303,
      "lon": 3304,
      "thus": 3305,
      "alty": 3306,
      "silver": 3307,
      "insurance": 3308,
      "got": 3309,
      "types": 3310,
      "Auto": 3311,
      "accompan": 3312,
      "Program": 3313,
      "sequ": 3314,
      "atives": 3315,
      "won": 3316,
      "agent": 3317,
      "repair": 3318,
      "named": 3319,
      "ali": 3320,
      "assets": 3321,
      "lived": 3322,
      "Details": 3323,
      "possess": 3324,
      "administration": 3325,
      "contains": 3326,
      "hid": 3327,
      "deal": 3328,
      "acri": 3329,
      "uly": 3330,
      "kings": 3331,
      "feasi": 3332,
      "titude": 3333,
      "mighty": 3334,
      "cretariat": 3335,
      "ham": 3336,
      "undertaken": 3337,
      "Exp": 3338,
      "accompanied": 3339,
      "eering": 3340,
      "seed": 3341,
      "ided": 3342,
      "1990": 3343,
      "famil": 3344,
      "--------": 3345,
      "absence": 3346,
      "Book": 3347,
      "rele": 3348,
      "notification": 3349,
      "youth": 3350,
      "Under": 3351,
      "ince": 3352,
      "apply": 3353,
      "others": 3354,
      "produce": 3355,
      "spirit": 3356,
      "measures": 3357,
      "break": 3358,
      "diction": 3359,
      "Mon": 3360,
      "pie": 3361,
      "plain": 3362,
      "agencies": 3363,
      "generation": 3364,
      "character": 3365,
      "Majesty": 3366,
      "gisl": 3367,
      "Up": 3368,
      "hibi": 3369,
      "calendar": 3370,
      "phone": 3371,
      "And": 3372,
      "guaran": 3373,
      "Bus": 3374,
      "Water": 3375,
      "sources": 3376,
      "icon": 3377,
      "unit": 3378,
      "................................": 3379,
      "tons": 3380,
      "index": 3381,
      "HT": 3382,
      "ditor": 3383,
      "ele": 3384,
      "oil": 3385,
      "Second": 3386,
      "ference": 3387,
      "Notification": 3388,
      "operations": 3389,
      "righteousness": 3390,
      "package": 3391,
      "advance": 3392,
      "utilization": 3393,
      "expansion": 3394,
      "km": 3395,
      "contents": 3396,
      "issuing": 3397,
      "allowance": 3398,
      "hydro": 3399,
      "expression": 3400,
      "acrific": 3401,
      "enabled": 3402,
      "asked": 3403,
      "coven": 3404,
      "river": 3405,
      "safe": 3406,
      "struction": 3407,
      "elsewhere": 3408,
      "brid": 3409,
      "folders": 3410,
      "Only": 3411,
      "ordinate": 3412,
      "IM": 3413,
      "gs": 3414,
      "track": 3415,
      "either": 3416,
      "sacrific": 3417,
      "ising": 3418,
      "verage": 3419,
      "temporary": 3420,
      "execute": 3421,
      "More": 3422,
      "gun": 3423,
      "disp": 3424,
      "worker": 3425,
      "struck": 3426,
      "Unless": 3427,
      "scale": 3428,
      "27": 3429,
      "Ben": 3430,
      "billion": 3431,
      "flow": 3432,
      "oh": 3433,
      "kets": 3434,
      "die": 3435,
      "submission": 3436,
      "centre": 3437,
      "ateral": 3438,
      "syn": 3439,
      "hectares": 3440,
      "Fe": 3441,
      "cup": 3442,
      "colle": 3443,
      "pray": 3444,
      "princip": 3445,
      "farmers": 3446,
      "Ir": 3447,
      "village": 3448,
      "wat": 3449,
      "disabled": 3450,
      "Fourth": 3451,
      "covenant": 3452,
      "ators": 3453,
      "banks": 3454,
      "collected": 3455,
      "29": 3456,
      "room": 3457,
      "ilder": 3458,
      "manage": 3459,
      "clud": 3460,
      "Form": 3461,
      "Father": 3462,
      "drop": 3463,
      "radio": 3464,
      "Inspe": 3465,
      "personal": 3466,
      "doing": 3467,
      "wood": 3468,
      "skill": 3469,
      "professional": 3470,
      "Mail": 3471,
      "Oper": 3472,
      "note": 3473,
      "consideration": 3474,
      "Eighth": 3475,
      "Son": 3476,
      "ured": 3477,
      "Tech": 3478,
      "hill": 3479,
      "uting": 3480,
      "route": 3481,
      "automatically": 3482,
      "Lab": 3483,
      "aim": 3484,
      "fell": 3485,
      "Start": 3486,
      "killed": 3487,
      "Spirit": 3488,
      "Bar": 3489,
      "bound": 3490,
      "gone": 3491,
      "ik": 3492,
      "Organ": 3493,
      "Trade": 3494,
      "teachers": 3495,
      "monitoring": 3496,
      "publication": 3497,
      "Move": 3498,
      "Order": 3499,
      "quantity": 3500,
      "ension": 3501,
      "ases": 3502,
      "stay": 3503,
      "extent": 3504,
      "deems": 3505,
      "towards": 3506,
      "future": 3507,
      "IN": 3508,
      "coun": 3509,
      "lord": 3510,
      "inherit": 3511,
      "Application": 3512,
      "House": 3513,
      "Window": 3514,
      "dev": 3515,
      "ols": 3516,
      "branch": 3517,
      "connect": 3518,
      "punished": 3519,
      "Central": 3520,
      "purchase": 3521,
      "currency": 3522,
      "View": 3523,
      "Such": 3524,
      "hus": 3525,
      "none": 3526,
      "sch": 3527,
      "sun": 3528,
      "liquid": 3529,
      "responsible": 3530,
      "Pra": 3531,
      "master": 3532,
      "prob": 3533,
      "options": 3534,
      "Because": 3535,
      "initial": 3536,
      "volution": 3537,
      "steps": 3538,
      "%.": 3539,
      "Mis": 3540,
      "cance": 3541,
      "io": 3542,
      "please": 3543,
      "thered": 3544,
      "resh": 3545,
      "loans": 3546,
      "Tele": 3547,
      "attle": 3548,
      "deposited": 3549,
      "System": 3550,
      "original": 3551,
      "Customs": 3552,
      "Type": 3553,
      "mption": 3554,
      "fav": 3555,
      "assess": 3556,
      "spoken": 3557,
      "standards": 3558,
      "objects": 3559,
      "black": 3560,
      "resolution": 3561,
      "wish": 3562,
      "feet": 3563,
      "points": 3564,
      "planation": 3565,
      "publishing": 3566,
      "bidder": 3567,
      "bes": 3568,
      "incurred": 3569,
      "lobal": 3570,
      "Make": 3571,
      "accept": 3572,
      "Twenty": 3573,
      "gain": 3574,
      "procedure": 3575,
      "hibit": 3576,
      "throughout": 3577,
      "levels": 3578,
      "pension": 3579,
      "cording": 3580,
      "schools": 3581,
      "Control": 3582,
      "80": 3583,
      "Time": 3584,
      "inhabit": 3585,
      "always": 3586,
      "Defin": 3587,
      "Default": 3588,
      "Solo": 3589,
      "Financial": 3590,
      "enemies": 3591,
      "hibition": 3592,
      ":–": 3593,
      "ule": 3594,
      "thi": 3595,
      "staff": 3596,
      "imported": 3597,
      "placed": 3598,
      "estimate": 3599,
      "Fore": 3600,
      "Vo": 3601,
      "van": 3602,
      "zz": 3603,
      "fails": 3604,
      "cured": 3605,
      "Export": 3606,
      "buy": 3607,
      "consent": 3608,
      "loading": 3609,
      "clearly": 3610,
      "fulfilled": 3611,
      "Solomon": 3612,
      "gazet": 3613,
      "rela": 3614,
      "recent": 3615,
      "sec": 3616,
      "example": 3617,
      "removed": 3618,
      "husband": 3619,
      "Cho": 3620,
      "gen": 3621,
      "rise": 3622,
      "wind": 3623,
      "product": 3624,
      "partner": 3625,
      "ength": 3626,
      "2063": 3627,
      "circumstances": 3628,
      "Eli": 3629,
      "Yes": 3630,
      "plants": 3631,
      "displayed": 3632,
      "Baby": 3633,
      "guarantee": 3634,
      "brow": 3635,
      "ker": 3636,
      "pi": 3637,
      "wilder": 3638,
      "enco": 3639,
      "stone": 3640,
      "neigh": 3641,
      "aily": 3642,
      "liminary": 3643,
      "waters": 3644,
      "Babylon": 3645,
      "mies": 3646,
      "reed": 3647,
      "aspe": 3648,
      "ets": 3649,
      "improved": 3650,
      "execut": 3651,
      "style": 3652,
      "wilderness": 3653,
      "Tour": 3654,
      "US": 3655,
      "jur": 3656,
      "ler": 3657,
      "lad": 3658,
      "izing": 3659,
      "paper": 3660,
      "ived": 3661,
      "esh": 3662,
      "estern": 3663,
      "Nepali": 3664,
      "Exchange": 3665,
      "offense": 3666,
      "signific": 3667,
      "conducting": 3668,
      "culti": 3669,
      "cand": 3670,
      "ices": 3671,
      "suffic": 3672,
      "geo": 3673,
      "amendment": 3674,
      "printer": 3675,
      "drugs": 3676,
      "cot": 3677,
      "organis": 3678,
      "establishment": 3679,
      "Lev": 3680,
      "1989": 3681,
      "ible": 3682,
      "smo": 3683,
      "tom": 3684,
      "checked": 3685,
      "opportunity": 3686,
      "Philist": 3687,
      "Jew": 3688,
      "hard": 3689,
      "pix": 3690,
      "detail": 3691,
      "possession": 3692,
      "consider": 3693,
      "representative": 3694,
      "accomplish": 3695,
      "imposed": 3696,
      "31": 3697,
      "TE": 3698,
      "lu": 3699,
      "repe": 3700,
      "iring": 3701,
      "chem": 3702,
      "closed": 3703,
      "Docu": 3704,
      "According": 3705,
      "Cal": 3706,
      "average": 3707,
      "aren": 3708,
      "propon": 3709,
      "students": 3710,
      "witness": 3711,
      "enterprise": 3712,
      "categ": 3713,
      "families": 3714,
      "Gra": 3715,
      "Armies": 3716,
      "suspension": 3717,
      "RB": 3718,
      "reti": 3719,
      "attention": 3720,
      "week": 3721,
      "mountaineering": 3722,
      "opportunities": 3723,
      "Employee": 3724,
      "fruit": 3725,
      "35": 3726,
      "aving": 3727,
      "ified": 3728,
      "ovable": 3729,
      "ats": 3730,
      "argu": 3731,
      "ames": 3732,
      "profile": 3733,
      "atis": 3734,
      "pattern": 3735,
      "Ge": 3736,
      "iency": 3737,
      "panchayat": 3738,
      "edit": 3739,
      "audio": 3740,
      "miner": 3741,
      "valent": 3742,
      "gives": 3743,
      "transportation": 3744,
      "ggle": 3745,
      "destroyed": 3746,
      "gislature": 3747,
      "75": 3748,
      "`'": 3749,
      "defic": 3750,
      "adjust": 3751,
      "Related": 3752,
      "recognized": 3753,
      "oriented": 3754,
      "bow": 3755,
      "ners": 3756,
      "abroad": 3757,
      "prevent": 3758,
      "corru": 3759,
      "meetings": 3760,
      "extend": 3761,
      "Article": 3762,
      "offerings": 3763,
      "ysis": 3764,
      "Speci": 3765,
      "judge": 3766,
      "occurred": 3767,
      "ronic": 3768,
      "Senate": 3769,
      "Every": 3770,
      "Phara": 3771,
      "stain": 3772,
      "unal": 3773,
      "Invalid": 3774,
      "clip": 3775,
      "majority": 3776,
      "Pharaoh": 3777,
      "AN": 3778,
      "Ke": 3779,
      "dou": 3780,
      "aring": 3781,
      "army": 3782,
      "belong": 3783,
      "stab": 3784,
      "yourself": 3785,
      "transferred": 3786,
      "include": 3787,
      "Securities": 3788,
      "candid": 3789,
      "articles": 3790,
      "covered": 3791,
      "loaded": 3792,
      "DM": 3793,
      "El": 3794,
      "ious": 3795,
      "round": 3796,
      "ilar": 3797,
      "height": 3798,
      "spread": 3799,
      "preser": 3800,
      "regul": 3801,
      "content": 3802,
      "immovable": 3803,
      "sw": 3804,
      "uent": 3805,
      "attemp": 3806,
      "competent": 3807,
      "Acts": 3808,
      "subs": 3809,
      "Similar": 3810,
      "Policy": 3811,
      "Right": 3812,
      "dle": 3813,
      "email": 3814,
      "serving": 3815,
      "news": 3816,
      "accordingly": 3817,
      "Hospital": 3818,
      "Bill": 3819,
      "length": 3820,
      "center": 3821,
      "opening": 3822,
      "books": 3823,
      "Legislature": 3824,
      "greater": 3825,
      "lies": 3826,
      "quot": 3827,
      "recover": 3828,
      "beginning": 3829,
      "39": 3830,
      "Sta": 3831,
      "ume": 3832,
      "yes": 3833,
      "raid": 3834,
      "raised": 3835,
      "compan": 3836,
      "media": 3837,
      "answer": 3838,
      "inform": 3839,
      "Thirty": 3840,
      "walk": 3841,
      "defined": 3842,
      "GNO": 3843,
      "suit": 3844,
      "anyone": 3845,
      "figu": 3846,
      "commod": 3847,
      "kingdom": 3848,
      "ctors": 3849,
      "sections": 3850,
      "centres": 3851,
      "tenant": 3852,
      "Judicial": 3853,
      "respectively": 3854,
      "fri": 3855,
      "ired": 3856,
      "eric": 3857,
      "Directors": 3858,
      "animals": 3859,
      "environmental": 3860,
      "launched": 3861,
      "Trib": 3862,
      "oples": 3863,
      "deput": 3864,
      "parame": 3865,
      "Eng": 3866,
      "roller": 3867,
      "medium": 3868,
      "debt": 3869,
      "experience": 3870,
      "significant": 3871,
      "Fo": 3872,
      "root": 3873,
      "unless": 3874,
      "external": 3875,
      "preview": 3876,
      "Members": 3877,
      "valuation": 3878,
      "encouraged": 3879,
      "expedition": 3880,
      "gathered": 3881,
      "GNOME": 3882,
      "bir": 3883,
      "mem": 3884,
      "suffer": 3885,
      "reser": 3886,
      "diffic": 3887,
      "reading": 3888,
      "Child": 3889,
      "holders": 3890,
      "Ra": 3891,
      "flo": 3892,
      "fast": 3893,
      "thening": 3894,
      "behalf": 3895,
      "rain": 3896,
      "plied": 3897,
      "engaged": 3898,
      "satisfied": 3899,
      "equi": 3900,
      "testi": 3901,
      "shop": 3902,
      "single": 3903,
      "Fifty": 3904,
      "council": 3905,
      "seas": 3906,
      "classi": 3907,
      "poll": 3908,
      "colors": 3909,
      "2066": 3910,
      "tribe": 3911,
      "500": 3912,
      "Press": 3913,
      "daily": 3914,
      "Institute": 3915,
      "emphas": 3916,
      "terminal": 3917,
      "everyone": 3918,
      ".'\"": 3919,
      "bed": 3920,
      "gree": 3921,
      "theme": 3922,
      "peoples": 3923,
      "extended": 3924,
      "void": 3925,
      "north": 3926,
      "however": 3927,
      "width": 3928,
      "associated": 3929,
      "Mess": 3930,
      "iod": 3931,
      "ua": 3932,
      "pet": 3933,
      "That": 3934,
      "State": 3935,
      "better": 3936,
      "recovered": 3937,
      "princes": 3938,
      "morning": 3939,
      "Similarly": 3940,
      "Upon": 3941,
      "rejo": 3942,
      "arms": 3943,
      "Revenue": 3944,
      "tenure": 3945,
      "needed": 3946,
      "developing": 3947,
      "customs": 3948,
      "adequ": 3949,
      "vacant": 3950,
      "wine": 3951,
      "org": 3952,
      "ored": 3953,
      "orter": 3954,
      "reme": 3955,
      "usic": 3956,
      "division": 3957,
      "ards": 3958,
      "afraid": 3959,
      "posed": 3960,
      "getting": 3961,
      "truth": 3962,
      "acquired": 3963,
      "Choose": 3964,
      "Philistines": 3965,
      "45": 3966,
      "Jose": 3967,
      "aper": 3968,
      "altern": 3969,
      "sustain": 3970,
      "activity": 3971,
      "promote": 3972,
      "question": 3973,
      "Delete": 3974,
      "believe": 3975,
      "Levites": 3976,
      "stablish": 3977,
      "enable": 3978,
      "cher": 3979,
      "coordination": 3980,
      "ferences": 3981,
      "Union": 3982,
      "surname": 3983,
      "ctivity": 3984,
      "judgment": 3985,
      "Whereas": 3986,
      "requested": 3987,
      "wait": 3988,
      "factory": 3989,
      "Jeho": 3990,
      "Configure": 3991,
      "Foreign": 3992,
      "Here": 3993,
      "Year": 3994,
      "lip": 3995,
      "quity": 3996,
      "herself": 3997,
      "clause": 3998,
      "tizens": 3999,
      "analysis": 4000,
      "itions": 4001,
      "pal": 4002,
      "stra": 4003,
      "takes": 4004,
      "poten": 4005,
      "likely": 4006,
      "clothe": 4007,
      "daughters": 4008,
      "tifying": 4009,
      "picture": 4010,
      "Duties": 4011,
      "Business": 4012,
      "Back": 4013,
      "Establish": 4014,
      "Rest": 4015,
      "Ret": 4016,
      "editor": 4017,
      "began": 4018,
      "ager": 4019,
      "preci": 4020,
      "deleted": 4021,
      "channel": 4022,
      "welve": 4023,
      "machine": 4024,
      "prophet": 4025,
      "oud": 4026,
      "ably": 4027,
      "feed": 4028,
      "Couldn": 4029,
      "kindness": 4030,
      "expenditures": 4031,
      "particulars": 4032,
      "Joseph": 4033,
      "Bye": 4034,
      "Evolution": 4035,
      "Wo": 4036,
      "wis": 4037,
      "statis": 4038,
      "proved": 4039,
      "ago": 4040,
      "parties": 4041,
      "reached": 4042,
      "disciples": 4043,
      "bottom": 4044,
      "birth": 4045,
      "dark": 4046,
      "pit": 4047,
      "rul": 4048,
      "alarm": 4049,
      "never": 4050,
      "worth": 4051,
      "door": 4052,
      "numbers": 4053,
      "operative": 4054,
      "………": 4055,
      "Except": 4056,
      "institutional": 4057,
      "vote": 4058,
      "fifteen": 4059,
      "several": 4060,
      "memory": 4061,
      "rates": 4062,
      "uary": 4063,
      "seeds": 4064,
      "weight": 4065,
      "directives": 4066,
      "chosen": 4067,
      "bearer": 4068,
      "International": 4069,
      "located": 4070,
      "Since": 4071,
      "ease": 4072,
      "plicate": 4073,
      "causes": 4074,
      "multitude": 4075,
      "iniquity": 4076,
      "Abra": 4077,
      "Civil": 4078,
      "gradually": 4079,
      "hidden": 4080,
      "sufficient": 4081,
      "Rese": 4082,
      "white": 4083,
      "auction": 4084,
      "impact": 4085,
      "poli": 4086,
      "provider": 4087,
      "dispute": 4088,
      "principal": 4089,
      "neighbor": 4090,
      "Jews": 4091,
      "Abraham": 4092,
      "Research": 4093,
      "units": 4094,
      "committees": 4095,
      "grade": 4096,
      "landowner": 4097,
      "Construction": 4098,
      "installation": 4099,
      "permanent": 4100,
      "92": 4101,
      "Pla": 4102,
      "Sal": 4103,
      "av": 4104,
      "ually": 4105,
      "verty": 4106,
      "web": 4107,
      "Secretariat": 4108,
      "thereto": 4109,
      "consumer": 4110,
      "citizenship": 4111,
      "preparing": 4112,
      "Sit": 4113,
      "tary": 4114,
      "poverty": 4115,
      "expiry": 4116,
      "transmission": 4117,
      "istrator": 4118,
      "guide": 4119,
      "decisions": 4120,
      "Survey": 4121,
      "wrath": 4122,
      "\"'": 4123,
      "CD": 4124,
      "ht": 4125,
      "inqui": 4126,
      "adverse": 4127,
      "llate": 4128,
      "applications": 4129,
      "actual": 4130,
      "Allow": 4131,
      "strength": 4132,
      "inheritance": 4133,
      "Car": 4134,
      "dated": 4135,
      "element": 4136,
      "hn": 4137,
      "sement": 4138,
      "ident": 4139,
      "auditor": 4140,
      "movable": 4141,
      "rich": 4142,
      "disk": 4143,
      "Remove": 4144,
      "brary": 4145,
      "Report": 4146,
      "Transport": 4147,
      "riter": 4148,
      "contribution": 4149,
      "Air": 4150,
      "rows": 4151,
      "surer": 4152,
      "Most": 4153,
      "Training": 4154,
      "prophets": 4155,
      "gods": 4156,
      "aneous": 4157,
      "equivalent": 4158,
      "potential": 4159,
      "raise": 4160,
      "agar": 4161,
      "payable": 4162,
      "examine": 4163,
      "cution": 4164,
      "zer": 4165,
      "unclean": 4166,
      "drawn": 4167,
      "HTML": 4168,
      "swe": 4169,
      "isha": 4170,
      "dece": 4171,
      "unable": 4172,
      "vert": 4173,
      "therein": 4174,
      "ctition": 4175,
      "temple": 4176,
      "inspect": 4177,
      "Procurement": 4178,
      "gazetted": 4179,
      "Eph": 4180,
      "hind": 4181,
      "vine": 4182,
      "mean": 4183,
      "loved": 4184,
      "acted": 4185,
      "cript": 4186,
      "broken": 4187,
      "departmental": 4188,
      "science": 4189,
      "33": 4190,
      "Id": 4191,
      "vant": 4192,
      "lost": 4193,
      "fies": 4194,
      "Inser": 4195,
      "Institution": 4196,
      "lauses": 4197,
      "owned": 4198,
      "listed": 4199,
      "failure": 4200,
      "entire": 4201,
      "senior": 4202,
      "hearing": 4203,
      "Her": 4204,
      "Switch": 4205,
      "Table": 4206,
      "justice": 4207,
      "sat": 4208,
      "infrastructure": 4209,
      "deficit": 4210,
      "70": 4211,
      "anti": 4212,
      "remember": 4213,
      "ilo": 4214,
      "shed": 4215,
      "conven": 4216,
      "conservation": 4217,
      "2010": 4218,
      "Publication": 4219,
      "manufact": 4220,
      "Mah": 4221,
      "aking": 4222,
      "mate": 4223,
      "rose": 4224,
      "visible": 4225,
      "keeping": 4226,
      "Insurer": 4227,
      "compo": 4228,
      "understanding": 4229,
      "gious": 4230,
      "Americ": 4231,
      "delegate": 4232,
      "creditor": 4233,
      "panel": 4234,
      "Terai": 4235,
      "broadcasting": 4236,
      "Welfare": 4237,
      "companies": 4238,
      "85": 4239,
      "ech": 4240,
      "sick": 4241,
      "ork": 4242,
      "isition": 4243,
      "article": 4244,
      "trading": 4245,
      "gies": 4246,
      "sheep": 4247,
      "Load": 4248,
      "vehicles": 4249,
      "liter": 4250,
      "collateral": 4251,
      "Bal": 4252,
      "east": 4253,
      "xy": 4254,
      "era": 4255,
      "mag": 4256,
      "common": 4257,
      "yourselves": 4258,
      "association": 4259,
      "trees": 4260,
      "Work": 4261,
      "Kingdom": 4262,
      "Programme": 4263,
      "assembly": 4264,
      "alloc": 4265,
      "identity": 4266,
      "sake": 4267,
      "Constit": 4268,
      "construct": 4269,
      "remained": 4270,
      "Saving": 4271,
      "driver": 4272,
      "encourage": 4273,
      "Speaker": 4274,
      "proponent": 4275,
      "Hol": 4276,
      "La": 4277,
      "bum": 4278,
      "trou": 4279,
      "watch": 4280,
      "contr": 4281,
      "sole": 4282,
      "phr": 4283,
      "Amended": 4284,
      "importance": 4285,
      "bio": 4286,
      "engine": 4287,
      "granted": 4288,
      "ON": 4289,
      "petition": 4290,
      "neg": 4291,
      "officials": 4292,
      "............": 4293,
      "restric": 4294,
      "attrib": 4295,
      "Josh": 4296,
      "mountains": 4297,
      "telephone": 4298,
      "Accounts": 4299,
      "crops": 4300,
      "Elect": 4301,
      "Tit": 4302,
      "tings": 4303,
      "constitute": 4304,
      "acqu": 4305,
      "exemp": 4306,
      "personnel": 4307,
      "technic": 4308,
      "collecting": 4309,
      "Govern": 4310,
      "gt": 4311,
      "shad": 4312,
      "login": 4313,
      "commits": 4314,
      "obli": 4315,
      "desp": 4316,
      "correspon": 4317,
      "Authentic": 4318,
      "mentioning": 4319,
      "modern": 4320,
      "teaching": 4321,
      "consumption": 4322,
      "bene": 4323,
      "packages": 4324,
      "reduce": 4325,
      "town": 4326,
      "levied": 4327,
      "enh": 4328,
      "Reform": 4329,
      "maintaining": 4330,
      "processing": 4331,
      "connected": 4332,
      "settlement": 4333,
      "improvement": 4334,
      "expert": 4335,
      "Agriculture": 4336,
      "feasibility": 4337,
      ".)": 4338,
      "Di": 4339,
      "IS": 4340,
      "award": 4341,
      "bath": 4342,
      "jah": 4343,
      "asks": 4344,
      "cially": 4345,
      "aph": 4346,
      "mining": 4347,
      "consultation": 4348,
      "Appeal": 4349,
      "integrated": 4350,
      "gunj": 4351,
      "Inspector": 4352,
      "wisdom": 4353,
      "Joshua": 4354,
      "32": 4355,
      "block": 4356,
      "inside": 4357,
      "Produ": 4358,
      "Conne": 4359,
      "anks": 4360,
      "properties": 4361,
      "heads": 4362,
      "department": 4363,
      "attached": 4364,
      "enemy": 4365,
      "Folder": 4366,
      "arbitrator": 4367,
      "Data": 4368,
      "36": 4369,
      "PG": 4370,
      "bri": 4371,
      "ju": 4372,
      "util": 4373,
      "ensure": 4374,
      "hope": 4375,
      "medic": 4376,
      "systems": 4377,
      "solid": 4378,
      "solution": 4379,
      "Med": 4380,
      "War": 4381,
      "cru": 4382,
      "inser": 4383,
      "Explanation": 4384,
      "wrong": 4385,
      "allows": 4386,
      "normal": 4387,
      "Design": 4388,
      "shortcut": 4389,
      "livestock": 4390,
      "script": 4391,
      "history": 4392,
      "beyond": 4393,
      "Non": 4394,
      "replace": 4395,
      "uni": 4396,
      "atever": 4397,
      "vile": 4398,
      "cession": 4399,
      "shows": 4400,
      "benefits": 4401,
      "Irrigation": 4402,
      "adequate": 4403,
      "Get": 4404,
      "oking": 4405,
      "ran": 4406,
      "wide": 4407,
      "rement": 4408,
      "containing": 4409,
      "ury": 4410,
      "app": 4411,
      "soil": 4412,
      "distributed": 4413,
      "consultant": 4414,
      "supplier": 4415,
      "journal": 4416,
      "Establishment": 4417,
      "Down": 4418,
      "clic": 4419,
      "ina": 4420,
      "really": 4421,
      "iration": 4422,
      "valley": 4423,
      "Format": 4424,
      "filename": 4425,
      "causing": 4426,
      "passeng": 4427,
      "south": 4428,
      "selling": 4429,
      "preparation": 4430,
      "inhabitants": 4431,
      "clipboard": 4432,
      "enhance": 4433,
      "Sci": 4434,
      "bul": 4435,
      "ots": 4436,
      "asing": 4437,
      "iling": 4438,
      "store": 4439,
      "ables": 4440,
      "invent": 4441,
      "middle": 4442,
      "trying": 4443,
      "launch": 4444,
      "Japanese": 4445,
      "defend": 4446,
      "pixels": 4447,
      "isdiction": 4448,
      "lose": 4449,
      "creating": 4450,
      "productivity": 4451,
      "approve": 4452,
      "volume": 4453,
      "requirements": 4454,
      "benefit": 4455,
      "cottage": 4456,
      "riteria": 4457,
      "34": 4458,
      "Cap": 4459,
      "Mic": 4460,
      "SS": 4461,
      "ender": 4462,
      "olid": 4463,
      "hak": 4464,
      "grain": 4465,
      "parent": 4466,
      "Conservation": 4467,
      "submitting": 4468,
      "Char": 4469,
      "earn": 4470,
      "keyboard": 4471,
      "……………………": 4472,
      "borrow": 4473,
      "welfare": 4474,
      "cultural": 4475,
      "Card": 4476,
      "Kon": 4477,
      "spr": 4478,
      "twelve": 4479,
      "entific": 4480,
      "alone": 4481,
      "worship": 4482,
      "lled": 4483,
      "Toggle": 4484,
      "planned": 4485,
      "sought": 4486,
      "banking": 4487,
      "efficient": 4488,
      "Users": 4489,
      "scheme": 4490,
      "Abi": 4491,
      "XML": 4492,
      "attra": 4493,
      "executive": 4494,
      "useful": 4495,
      "Planning": 4496,
      "Beth": 4497,
      "cubits": 4498,
      "Net": 4499,
      "eight": 4500,
      "sof": 4501,
      "assigned": 4502,
      "advice": 4503,
      "moved": 4504,
      "mination": 4505,
      "mitted": 4506,
      "Services": 4507,
      "protect": 4508,
      "supervision": 4509,
      "hours": 4510,
      "Current": 4511,
      "Laws": 4512,
      "Authentication": 4513,
      "cision": 4514,
      "isation": 4515,
      "ints": 4516,
      "reports": 4517,
      "surely": 4518,
      "custody": 4519,
      "Find": 4520,
      "Sep": 4521,
      "vated": 4522,
      "tag": 4523,
      "targets": 4524,
      "statements": 4525,
      "fourth": 4526,
      "permissions": 4527,
      "ront": 4528,
      "advan": 4529,
      "acquire": 4530,
      "Valley": 4531,
      "results": 4532,
      "aspects": 4533,
      "Tourism": 4534,
      ",-": 4535,
      "Even": 4536,
      "flock": 4537,
      "lam": 4538,
      "ray": 4539,
      "intends": 4540,
      "goes": 4541,
      "controll": 4542,
      "aria": 4543,
      "captain": 4544,
      "interests": 4545,
      "communications": 4546,
      "drive": 4547,
      "Take": 4548,
      "pieces": 4549,
      "Pris": 4550,
      "wild": 4551,
      "meter": 4552,
      "simple": 4553,
      "fect": 4554,
      "spent": 4555,
      "early": 4556,
      "passport": 4557,
      "grounds": 4558,
      "cellaneous": 4559,
      "identify": 4560,
      "chemical": 4561,
      "Constituent": 4562,
      "sle": 4563,
      "tes": 4564,
      "enough": 4565,
      "decre": 4566,
      "ria": 4567,
      "amin": 4568,
      "Head": 4569,
      "orders": 4570,
      "bug": 4571,
      "Server": 4572,
      "longer": 4573,
      "Good": 4574,
      "secondary": 4575,
      "attach": 4576,
      "roleum": 4577,
      "tware": 4578,
      "seems": 4579,
      "Each": 4580,
      "Punish": 4581,
      "Try": 4582,
      "fit": 4583,
      "hur": 4584,
      "ians": 4585,
      "sla": 4586,
      "stream": 4587,
      "calcul": 4588,
      "productive": 4589,
      "spaper": 4590,
      "Scho": 4591,
      "funds": 4592,
      "Manager": 4593,
      "introduced": 4594,
      "statistics": 4595,
      "AT": 4596,
      "Jord": 4597,
      "Mid": 4598,
      "Text": 4599,
      "sort": 4600,
      "ana": 4601,
      "rather": 4602,
      "notes": 4603,
      "tices": 4604,
      "Committees": 4605,
      "250": 4606,
      "furnish": 4607,
      "cancel": 4608,
      "Jordan": 4609,
      "Fac": 4610,
      "Mark": 4611,
      "mix": 4612,
      "sn": 4613,
      "ano": 4614,
      "reve": 4615,
      "rap": 4616,
      "Record": 4617,
      "195": 4618,
      "Play": 4619,
      "tificates": 4620,
      "showing": 4621,
      "teacher": 4622,
      "?'": 4623,
      "bad": 4624,
      "best": 4625,
      "govern": 4626,
      "mits": 4627,
      "rang": 4628,
      "ya": 4629,
      "ensu": 4630,
      "conclud": 4631,
      "verti": 4632,
      "gible": 4633,
      "effects": 4634,
      "Appro": 4635,
      "John": 4636,
      "printing": 4637,
      "graphical": 4638,
      "Citizen": 4639,
      "honor": 4640,
      "desires": 4641,
      "favor": 4642,
      "Title": 4643,
      "Asi": 4644,
      "Op": 4645,
      "Part": 4646,
      "hun": 4647,
      "thr": 4648,
      "rivers": 4649,
      "lier": 4650,
      "traditional": 4651,
      "cape": 4652,
      "sectoral": 4653,
      "buildings": 4654,
      "driving": 4655,
      "savings": 4656,
      "execution": 4657,
      "initiated": 4658,
      "Formation": 4659,
      "relative": 4660,
      "browser": 4661,
      "political": 4662,
      "Ko": 4663,
      "Script": 4664,
      "squ": 4665,
      "urved": 4666,
      "haz": 4667,
      "sib": 4668,
      "endra": 4669,
      "Repe": 4670,
      "frames": 4671,
      "charged": 4672,
      "focus": 4673,
      "offered": 4674,
      "Fifteen": 4675,
      "efficiency": 4676,
      "executed": 4677,
      "Ay": 4678,
      "ee": 4679,
      "cope": 4680,
      "ache": 4681,
      "lif": 4682,
      "Tool": 4683,
      "Prohibition": 4684,
      "implementing": 4685,
      "Moab": 4686,
      "sins": 4687,
      "bird": 4688,
      "Their": 4689,
      "weather": 4690,
      "Those": 4691,
      "elders": 4692,
      "hide": 4693,
      "angel": 4694,
      "expiration": 4695,
      "household": 4696,
      "38": 4697,
      "91": 4698,
      "ake": 4699,
      "battle": 4700,
      "cancell": 4701,
      "ues": 4702,
      "usu": 4703,
      "tel": 4704,
      "resent": 4705,
      "charges": 4706,
      "Max": 4707,
      "Obje": 4708,
      "relevant": 4709,
      "Moreover": 4710,
      "Ephra": 4711,
      "Draw": 4712,
      "FY": 4713,
      "TP": 4714,
      "fle": 4715,
      "tist": 4716,
      "update": 4717,
      "disease": 4718,
      "cursor": 4719,
      "remains": 4720,
      "Filter": 4721,
      "fuel": 4722,
      "yield": 4723,
      "rew": 4724,
      "stones": 4725,
      "See": 4726,
      "creation": 4727,
      "obo": 4728,
      "Prof": 4729,
      "Definitions": 4730,
      "gather": 4731,
      "ification": 4732,
      "mort": 4733,
      "tur": 4734,
      "ann": 4735,
      "espe": 4736,
      "habil": 4737,
      "sition": 4738,
      "Seven": 4739,
      "cessary": 4740,
      "disability": 4741,
      "posal": 4742,
      "decided": 4743,
      "sending": 4744,
      "affected": 4745,
      "Peter": 4746,
      "Punishment": 4747,
      "Mul": 4748,
      "Pass": 4749,
      "cking": 4750,
      "front": 4751,
      "treas": 4752,
      "zone": 4753,
      "reject": 4754,
      "deed": 4755,
      "comb": 4756,
      "quer": 4757,
      "borne": 4758,
      "delivery": 4759,
      "climate": 4760,
      "Description": 4761,
      "Represent": 4762,
      "2048": 4763,
      "analy": 4764,
      "counsel": 4765,
      "Ayurved": 4766,
      "Justice": 4767,
      "Ver": 4768,
      "Ward": 4769,
      "cro": 4770,
      "emb": 4771,
      "oration": 4772,
      "edge": 4773,
      "arrest": 4774,
      "prohibit": 4775,
      "pers": 4776,
      "quick": 4777,
      "Subject": 4778,
      "mind": 4779,
      "disc": 4780,
      "letters": 4781,
      "Arrange": 4782,
      "2006": 4783,
      "material": 4784,
      "accepted": 4785,
      "Desktop": 4786,
      "Necessary": 4787,
      "Industrial": 4788,
      "expedient": 4789,
      "sacrifice": 4790,
      "detailed": 4791,
      "aut": 4792,
      "itary": 4793,
      "why": 4794,
      "yout": 4795,
      "aces": 4796,
      "acle": 4797,
      "weak": 4798,
      "label": 4799,
      "cribe": 4800,
      "properly": 4801,
      "settled": 4802,
      "blessed": 4803,
      "think": 4804,
      "Children": 4805,
      "phrase": 4806,
      "Hor": 4807,
      "oom": 4808,
      "rank": 4809,
      "tation": 4810,
      "ush": 4811,
      "enacted": 4812,
      "atures": 4813,
      "forty": 4814,
      "deci": 4815,
      "feast": 4816,
      "accused": 4817,
      "Remo": 4818,
      "archive": 4819,
      "sales": 4820,
      "costs": 4821,
      "investig": 4822,
      "Police": 4823,
      "Finance": 4824,
      "fairs": 4825,
      "especially": 4826,
      "bill": 4827,
      "pages": 4828,
      "institute": 4829,
      "soon": 4830,
      "vessel": 4831,
      "2049": 4832,
      "continued": 4833,
      "hospitals": 4834,
      "jurisdiction": 4835,
      "Keep": 4836,
      "suitable": 4837,
      "athan": 4838,
      "duration": 4839,
      "seventh": 4840,
      "loving": 4841,
      "acy": 4842,
      "citizens": 4843,
      "saf": 4844,
      "mony": 4845,
      "investors": 4846,
      "Appellate": 4847,
      "Monitor": 4848,
      "ctitioner": 4849,
      "municip": 4850,
      "rant": 4851,
      "andom": 4852,
      "seal": 4853,
      "facto": 4854,
      "Stand": 4855,
      "pleas": 4856,
      "micro": 4857,
      "Employees": 4858,
      "Prescribed": 4859,
      "Auditor": 4860,
      "youths": 4861,
      "Message": 4862,
      "Prison": 4863,
      "37": 4864,
      "Fra": 4865,
      "Prom": 4866,
      "criteria": 4867,
      "fish": 4868,
      "ox": 4869,
      "reward": 4870,
      "dem": 4871,
      "dete": 4872,
      "degree": 4873,
      "adverti": 4874,
      "duplicate": 4875,
      "diseas": 4876,
      "percentage": 4877,
      "considers": 4878,
      "electronic": 4879,
      "2002": 4880,
      "falls": 4881,
      "formulate": 4882,
      "formulated": 4883,
      "scientific": 4884,
      "consisting": 4885,
      "AL": 4886,
      "Drug": 4887,
      "IC": 4888,
      "OR": 4889,
      "Sab": 4890,
      "South": 4891,
      "tent": 4892,
      "assign": 4893,
      "ics": 4894,
      "sealed": 4895,
      "cooperative": 4896,
      "fier": 4897,
      "imal": 4898,
      "forms": 4899,
      "understand": 4900,
      "proposals": 4901,
      "qualified": 4902,
      "Certifying": 4903,
      "estival": 4904,
      "Amounts": 4905,
      "Send": 4906,
      "cated": 4907,
      "nd": 4908,
      "vin": 4909,
      "tocol": 4910,
      "touch": 4911,
      "secret": 4912,
      "los": 4913,
      "versi": 4914,
      "train": 4915,
      "desol": 4916,
      "newspaper": 4917,
      "1992": 4918,
      "module": 4919,
      "attend": 4920,
      "Procedures": 4921,
      "contrary": 4922,
      "Ephraim": 4923,
      "Isa": 4924,
      "July": 4925,
      "Qual": 4926,
      "Screen": 4927,
      "bind": 4928,
      "sl": 4929,
      "behind": 4930,
      "constitution": 4931,
      "lying": 4932,
      "finished": 4933,
      "cks": 4934,
      "parse": 4935,
      "distribute": 4936,
      "subjects": 4937,
      "2007": 4938,
      "exported": 4939,
      "kinds": 4940,
      "tourist": 4941,
      "housing": 4942,
      "Guthi": 4943,
      "expanded": 4944,
      "Gi": 4945,
      "bru": 4946,
      "whe": 4947,
      "becomes": 4948,
      "Inst": 4949,
      "Invest": 4950,
      "organized": 4951,
      "pati": 4952,
      "startup": 4953,
      "venty": 4954,
      "involve": 4955,
      "consultancy": 4956,
      "telecommunication": 4957,
      "competition": 4958,
      "minerals": 4959,
      "Mount": 4960,
      "election": 4961,
      "ssible": 4962,
      "reet": 4963,
      "adi": 4964,
      "formulation": 4965,
      "desire": 4966,
      "Army": 4967,
      "template": 4968,
      "techni": 4969,
      "skills": 4970,
      "bonds": 4971,
      "quarters": 4972,
      "alteration": 4973,
      "Paul": 4974,
      "Amm": 4975,
      "Fa": 4976,
      "Tent": 4977,
      "ories": 4978,
      "rope": 4979,
      "excess": 4980,
      "ricul": 4981,
      "configure": 4982,
      "characters": 4983,
      "president": 4984,
      "craft": 4985,
      "friend": 4986,
      "safety": 4987,
      "Clauses": 4988,
      "Jon": 4989,
      "ira": 4990,
      "mount": 4991,
      "isco": 4992,
      "upper": 4993,
      "izon": 4994,
      "Sections": 4995,
      "handle": 4996,
      "highlight": 4997,
      "imports": 4998,
      "enterprises": 4999,
      "emphasis": 5000,
      "throne": 5001,
      "Having": 5002,
      "Mer": 5003,
      "Teach": 5004,
      "Will": 5005,
      "nar": 5006,
      "till": 5007,
      "traffic": 5008,
      "officers": 5009,
      "earlier": 5010,
      "Judge": 5011,
      "Settings": 5012,
      "situated": 5013,
      "sanct": 5014,
      "Regional": 5015,
      "Benj": 5016,
      "schedule": 5017,
      "diseases": 5018,
      "*.": 5019,
      "Ash": 5020,
      "Stock": 5021,
      "fat": 5022,
      "nt": 5023,
      "pts": 5024,
      "tha": 5025,
      "delay": 5026,
      "iff": 5027,
      "ipso": 5028,
      "foot": 5029,
      "contravention": 5030,
      "Although": 5031,
      "elected": 5032,
      "copies": 5033,
      "ordinary": 5034,
      "practice": 5035,
      "Pil": 5036,
      "bon": 5037,
      "ball": 5038,
      "gates": 5039,
      "miah": 5040,
      "pha": 5041,
      "aste": 5042,
      "demon": 5043,
      "grants": 5044,
      "returns": 5045,
      "widget": 5046,
      "multiple": 5047,
      "deducted": 5048,
      "competi": 5049,
      "NF": 5050,
      "President": 5051,
      "aan": 5052,
      "eye": 5053,
      "recip": 5054,
      "oured": 5055,
      "meal": 5056,
      "utter": 5057,
      "compon": 5058,
      "certificates": 5059,
      "symb": 5060,
      "issues": 5061,
      "addres": 5062,
      "backward": 5063,
      "validity": 5064,
      "praise": 5065,
      "Resources": 5066,
      "involving": 5067,
      "afflic": 5068,
      "Operation": 5069,
      "htt": 5070,
      "York": 5071,
      "strate": 5072,
      "coordin": 5073,
      "whatever": 5074,
      "Inc": 5075,
      "Prote": 5076,
      "sitting": 5077,
      "religious": 5078,
      "retirement": 5079,
      "pollution": 5080,
      "'.": 5081,
      "BAR": 5082,
      "II": 5083,
      "Mat": 5084,
      "onal": 5085,
      "acade": 5086,
      "amble": 5087,
      "via": 5088,
      "applicable": 5089,
      "hood": 5090,
      "growing": 5091,
      "Techn": 5092,
      "candidate": 5093,
      "darkness": 5094,
      "Sitting": 5095,
      "Nar": 5096,
      "Sm": 5097,
      "kiah": 5098,
      "pti": 5099,
      "pul": 5100,
      "tile": 5101,
      "sho": 5102,
      "proxy": 5103,
      "une": 5104,
      "angle": 5105,
      "corporation": 5106,
      "consolid": 5107,
      "Streng": 5108,
      "....................": 5109,
      "occup": 5110,
      "administrator": 5111,
      "Person": 5112,
      "desired": 5113,
      "Identity": 5114,
      "84": 5115,
      "release": 5116,
      "union": 5117,
      "applied": 5118,
      "formal": 5119,
      "markets": 5120,
      "filing": 5121,
      "provides": 5122,
      "2064": 5123,
      "Preamble": 5124,
      "effectively": 5125,
      "Bes": 5126,
      "Global": 5127,
      "Kar": 5128,
      "gross": 5129,
      "grie": 5130,
      "tie": 5131,
      "olar": 5132,
      "irregular": 5133,
      "ads": 5134,
      "pressed": 5135,
      "guard": 5136,
      "presented": 5137,
      "Prime": 5138,
      "defense": 5139,
      "Mod": 5140,
      "Run": 5141,
      "Zone": 5142,
      "greg": 5143,
      "hang": 5144,
      "ky": 5145,
      "sister": 5146,
      "uk": 5147,
      "ink": 5148,
      "chari": 5149,
      "tem": 5150,
      "compar": 5151,
      "generated": 5152,
      "evening": 5153,
      "variable": 5154,
      "big": 5155,
      "Syn": 5156,
      "presiding": 5157,
      "culture": 5158,
      "Nor": 5159,
      "Ste": 5160,
      "kilo": 5161,
      "nail": 5162,
      "pill": 5163,
      "throw": 5164,
      "onts": 5165,
      "unknown": 5166,
      "ligible": 5167,
      "utri": 5168,
      "quo": 5169,
      "thereunder": 5170,
      "awaren": 5171,
      "model": 5172,
      "intention": 5173,
      "storage": 5174,
      "drag": 5175,
      "reigned": 5176,
      "Holy": 5177,
      "benefic": 5178,
      "Sabbath": 5179,
      "academic": 5180,
      "Jere": 5181,
      "PS": 5182,
      "refund": 5183,
      "rehabil": 5184,
      "raf": 5185,
      "across": 5186,
      "cried": 5187,
      "layers": 5188,
      "judic": 5189,
      "figured": 5190,
      "bore": 5191,
      "music": 5192,
      "tio": 5193,
      "often": 5194,
      "isn": 5195,
      "asse": 5196,
      "sample": 5197,
      "female": 5198,
      "Commer": 5199,
      "Communic": 5200,
      "Distrib": 5201,
      "measure": 5202,
      "introduce": 5203,
      "Industries": 5204,
      "bridges": 5205,
      "Food": 5206,
      "anoint": 5207,
      "awareness": 5208,
      "GDM": 5209,
      "Tar": 5210,
      "Temp": 5211,
      "Writ": 5212,
      "vents": 5213,
      "cotic": 5214,
      "looking": 5215,
      "speed": 5216,
      "disabilities": 5217,
      "myself": 5218,
      "torney": 5219,
      "exceed": 5220,
      "Also": 5221,
      "Agreement": 5222,
      "Disable": 5223,
      "Place": 5224,
      "Promo": 5225,
      "IF": 5226,
      "PO": 5227,
      "bac": 5228,
      "bric": 5229,
      "cr": 5230,
      "west": 5231,
      "vector": 5232,
      "ously": 5233,
      "speech": 5234,
      "performing": 5235,
      "commandment": 5236,
      "Canaan": 5237,
      "1984": 5238,
      "settle": 5239,
      "consum": 5240,
      "burden": 5241,
      "declared": 5242,
      "achieved": 5243,
      "permanently": 5244,
      "Supreme": 5245,
      "rejoice": 5246,
      "alternative": 5247,
      "Benjamin": 5248,
      "Sun": 5249,
      "hills": 5250,
      "iary": 5251,
      "mut": 5252,
      "insol": 5253,
      "isters": 5254,
      "arma": 5255,
      "prospe": 5256,
      "simp": 5257,
      "liabilities": 5258,
      "fications": 5259,
      "membership": 5260,
      "encoding": 5261,
      "argument": 5262,
      "AS": 5263,
      "Apr": 5264,
      "Pat": 5265,
      "Shi": 5266,
      "Word": 5267,
      "Zion": 5268,
      "sports": 5269,
      "tives": 5270,
      "album": 5271,
      "today": 5272,
      "arose": 5273,
      "station": 5274,
      "iron": 5275,
      "veness": 5276,
      "Come": 5277,
      "trained": 5278,
      "interpre": 5279,
      "Mode": 5280,
      "penalty": 5281,
      "Social": 5282,
      "recommended": 5283,
      "tools": 5284,
      "Republic": 5285,
      "looked": 5286,
      "Agricultural": 5287,
      "double": 5288,
      "shadow": 5289,
      "queror": 5290,
      "sanctuary": 5291,
      "65": 5292,
      "DP": 5293,
      "IP": 5294,
      "harm": 5295,
      "nur": 5296,
      "western": 5297,
      "thought": 5298,
      "thanks": 5299,
      "promis": 5300,
      "rix": 5301,
      "wash": 5302,
      "2000": 5303,
      "earned": 5304,
      "gging": 5305,
      "drawing": 5306,
      "Files": 5307,
      "Miscellaneous": 5308,
      "clicking": 5309,
      "festival": 5310,
      "plo": 5311,
      "wer": 5312,
      "semin": 5313,
      "const": 5314,
      "conce": 5315,
      "configured": 5316,
      "ression": 5317,
      "abide": 5318,
      "library": 5319,
      "impose": 5320,
      "phes": 5321,
      "ships": 5322,
      "appeared": 5323,
      "recorded": 5324,
      "buttons": 5325,
      "Licence": 5326,
      "Home": 5327,
      "confid": 5328,
      "62": 5329,
      "Cisco": 5330,
      "cam": 5331,
      "jus": 5332,
      "vill": 5333,
      "secured": 5334,
      "exit": 5335,
      "feature": 5336,
      "speaking": 5337,
      "issuance": 5338,
      "capable": 5339,
      "salvation": 5340,
      "header": 5341,
      "strike": 5342,
      "category": 5343,
      "Electric": 5344,
      "Strengthening": 5345,
      "Ri": 5346,
      "ump": 5347,
      "shut": 5348,
      "agree": 5349,
      "oney": 5350,
      "viation": 5351,
      "minal": 5352,
      "observe": 5353,
      "Procedure": 5354,
      "News": 5355,
      "factors": 5356,
      "correctly": 5357,
      "heavens": 5358,
      "deputed": 5359,
      "lifted": 5360,
      "stret": 5361,
      "lod": 5362,
      "fight": 5363,
      "starting": 5364,
      "exports": 5365,
      "destru": 5366,
      "shareholders": 5367,
      "certainly": 5368,
      "incense": 5369,
      "Document": 5370,
      ";)": 5371,
      "Camp": 5372,
      "Pet": 5373,
      "Vari": 5374,
      "fonts": 5375,
      "thumb": 5376,
      "thened": 5377,
      "ically": 5378,
      "dient": 5379,
      "disposal": 5380,
      "Issu": 5381,
      "supervis": 5382,
      "School": 5383,
      "oboam": 5384,
      "http": 5385,
      "April": 5386,
      "Face": 5387,
      "fled": 5388,
      "lest": 5389,
      "nutri": 5390,
      "plot": 5391,
      "onom": 5392,
      "enced": 5393,
      "ster": 5394,
      "proof": 5395,
      "quor": 5396,
      "moving": 5397,
      "finan": 5398,
      "prison": 5399,
      "transl": 5400,
      "instance": 5401,
      "something": 5402,
      "response": 5403,
      "society": 5404,
      "farming": 5405,
      "strengthened": 5406,
      "clothes": 5407,
      "Konqueror": 5408,
      "Investment": 5409,
      "Besides": 5410,
      "CH": 5411,
      "Close": 5412,
      "KMail": 5413,
      "bt": 5414,
      "flood": 5415,
      "rig": 5416,
      "utor": 5417,
      "domain": 5418,
      "healthy": 5419,
      "visit": 5420,
      "inventory": 5421,
      "Jeremiah": 5422,
      ",'": 5423,
      "44": 5424,
      "Gal": 5425,
      "llow": 5426,
      "mise": 5427,
      "switch": 5428,
      "beha": 5429,
      "protocol": 5430,
      "prophes": 5431,
      "iden": 5432,
      "mpt": 5433,
      "olish": 5434,
      "divided": 5435,
      "query": 5436,
      "importer": 5437,
      "knowing": 5438,
      "Apply": 5439,
      "printed": 5440,
      "supplied": 5441,
      "instruments": 5442,
      "infrastruct": 5443,
      "secure": 5444,
      "ensus": 5445,
      "Technical": 5446,
      "==": 5447,
      "Free": 5448,
      "PD": 5449,
      "Pay": 5450,
      "dream": 5451,
      "gges": 5452,
      "sory": 5453,
      "mble": 5454,
      "compared": 5455,
      "emer": 5456,
      "Read": 5457,
      "approach": 5458,
      "aircraft": 5459,
      "commandments": 5460,
      "hereunder": 5461,
      "suspend": 5462,
      "specifying": 5463,
      "discipl": 5464,
      "Expendit": 5465,
      "Monitoring": 5466,
      "izontal": 5467,
      "onomous": 5468,
      "Es": 5469,
      "Ren": 5470,
      "Red": 5471,
      "dry": 5472,
      "oath": 5473,
      "ration": 5474,
      "mechan": 5475,
      "ulty": 5476,
      "updated": 5477,
      "preliminary": 5478,
      "oked": 5479,
      "aked": 5480,
      "generations": 5481,
      "mercy": 5482,
      "1961": 5483,
      "columns": 5484,
      "statutes": 5485,
      "renewed": 5486,
      "Internet": 5487,
      "Birat": 5488,
      "Organization": 5489,
      "spring": 5490,
      ");": 5491,
      "Action": 5492,
      "Center": 5493,
      "avoid": 5494,
      "restruct": 5495,
      "proportion": 5496,
      "plus": 5497,
      "tically": 5498,
      "Commencement": 5499,
      "reported": 5500,
      "retrie": 5501,
      "directors": 5502,
      "sites": 5503,
      "Colle": 5504,
      "Preliminary": 5505,
      "Period": 5506,
      "authentication": 5507,
      "Clear": 5508,
      "Sing": 5509,
      "nn": 5510,
      "slow": 5511,
      "inary": 5512,
      "entries": 5513,
      "fort": 5514,
      "ests": 5515,
      "pressure": 5516,
      "prescribe": 5517,
      "establishing": 5518,
      "Manasse": 5519,
      "practitioner": 5520,
      "recovery": 5521,
      "modified": 5522,
      "Joab": 5523,
      "requirement": 5524,
      "affect": 5525,
      "circumstance": 5526,
      "encryption": 5527,
      "collective": 5528,
      "Manasseh": 5529,
      "Found": 5530,
      "IT": 5531,
      "San": 5532,
      "crow": 5533,
      "rance": 5534,
      "prove": 5535,
      "hab": 5536,
      "abund": 5537,
      "certified": 5538,
      "surface": 5539,
      "Chang": 5540,
      "bookmarks": 5541,
      "heading": 5542,
      "Corp": 5543,
      "evaluate": 5544,
      "qualifications": 5545,
      "Egypti": 5546,
      "flu": 5547,
      "leading": 5548,
      "stored": 5549,
      "Voices": 5550,
      "square": 5551,
      "Gile": 5552,
      "Pop": 5553,
      "Path": 5554,
      "culation": 5555,
      "freed": 5556,
      "usion": 5557,
      "enforce": 5558,
      "eder": 5559,
      "coordinate": 5560,
      "amend": 5561,
      "overall": 5562,
      "mos": 5563,
      "communities": 5564,
      "Proper": 5565,
      "Convert": 5566,
      "invite": 5567,
      "numbered": 5568,
      "facil": 5569,
      "calls": 5570,
      "edia": 5571,
      "donation": 5572,
      "languages": 5573,
      "scatter": 5574,
      "Whoever": 5575,
      "Programmes": 5576,
      "identified": 5577,
      "Samuel": 5578,
      "dependent": 5579,
      "elements": 5580,
      "parameter": 5581,
      "negative": 5582,
      "riculum": 5583,
      "gregation": 5584,
      "villages": 5585,
      "Gilead": 5586,
      "aer": 5587,
      "lat": 5588,
      "pure": 5589,
      "sugges": 5590,
      "promise": 5591,
      "antine": 5592,
      "vior": 5593,
      "worked": 5594,
      "centers": 5595,
      "ears": 5596,
      "ensity": 5597,
      "Again": 5598,
      "inspector": 5599,
      "Controller": 5600,
      "mediation": 5601,
      "machines": 5602,
      "laboratory": 5603,
      "smooth": 5604,
      "competitive": 5605,
      "Promotion": 5606,
      "Kam": 5607,
      "win": 5608,
      "“”": 5609,
      "decentral": 5610,
      "Investi": 5611,
      "minister": 5612,
      "Assy": 5613,
      "rising": 5614,
      "Class": 5615,
      "modify": 5616,
      "Prior": 5617,
      "furnished": 5618,
      "Shah": 5619,
      "photograph": 5620,
      "Mor": 5621,
      "Wid": 5622,
      "frequ": 5623,
      "mour": 5624,
      "pher": 5625,
      "encamp": 5626,
      "tivity": 5627,
      "forced": 5628,
      "clude": 5629,
      "accident": 5630,
      "Additional": 5631,
      "generally": 5632,
      "firstborn": 5633,
      "missing": 5634,
      "positive": 5635,
      "glad": 5636,
      "measurement": 5637,
      "tribes": 5638,
      "Capital": 5639,
      "(#": 5640,
      "48": 5641,
      "49": 5642,
      "Bik": 5643,
      "Ctr": 5644,
      "Hide": 5645,
      "NG": 5646,
      "Panchayat": 5647,
      "UN": 5648,
      "Ze": 5649,
      "`%.": 5650,
      "aiah": 5651,
      "mas": 5652,
      "os": 5653,
      "aside": 5654,
      "odal": 5655,
      "lion": 5656,
      "diag": 5657,
      "former": 5658,
      "Total": 5659,
      "interface": 5660,
      "Unknown": 5661,
      "paying": 5662,
      "signs": 5663,
      "Shall": 5664,
      "targe": 5665,
      "timodal": 5666,
      "Level": 5667,
      "figure": 5668,
      "destination": 5669,
      "deposits": 5670,
      "wives": 5671,
      "monetary": 5672,
      "Indian": 5673,
      "tribunal": 5674,
      "assessment": 5675,
      "English": 5676,
      "constant": 5677,
      "Ctrl": 5678,
      "55": 5679,
      "Pen": 5680,
      "ened": 5681,
      "rock": 5682,
      "sts": 5683,
      "clothing": 5684,
      "toolbar": 5685,
      "garments": 5686,
      "commodities": 5687,
      "concluded": 5688,
      "restructuring": 5689,
      "\\\\": 5690,
      "aves": 5691,
      "eligible": 5692,
      "obey": 5693,
      "ratio": 5694,
      "tered": 5695,
      "lips": 5696,
      "privile": 5697,
      "Dev": 5698,
      "Plu": 5699,
      "matrix": 5700,
      "Entity": 5701,
      "……………": 5702,
      "corporations": 5703,
      "repealed": 5704,
      "quorum": 5705,
      "Ign": 5706,
      "Line": 5707,
      "Over": 5708,
      "RRB": 5709,
      "Yet": 5710,
      "ama": 5711,
      "cket": 5712,
      "phas": 5713,
      "tasks": 5714,
      "ware": 5715,
      "enhan": 5716,
      "artist": 5717,
      "congregation": 5718,
      "plag": 5719,
      "discharge": 5720,
      "observed": 5721,
      "cumul": 5722,
      "film": 5723,
      "techno": 5724,
      "bringing": 5725,
      "separated": 5726,
      "methods": 5727,
      "indeed": 5728,
      "IMP": 5729,
      "consumers": 5730,
      "Petroleum": 5731,
      "infrastructures": 5732,
      "Bud": 5733,
      "Bless": 5734,
      "ER": 5735,
      "global": 5736,
      "kers": 5737,
      "swor": 5738,
      "tu": 5739,
      "Though": 5740,
      "acces": 5741,
      "operator": 5742,
      "poly": 5743,
      "closing": 5744,
      "Corpor": 5745,
      "managed": 5746,
      "grees": 5747,
      "suspended": 5748,
      "promoted": 5749,
      "reliable": 5750,
      "scribe": 5751,
      "navi": 5752,
      "organisations": 5753,
      "avy": 5754,
      "attribute": 5755,
      "vessels": 5756,
      "techniques": 5757,
      "ert": 5758,
      "reference": 5759,
      "assu": 5760,
      "pertaining": 5761,
      "brass": 5762,
      "blind": 5763,
      "declare": 5764,
      "Technology": 5765,
      "CP": 5766,
      "Day": 5767,
      "Western": 5768,
      "bars": 5769,
      "cross": 5770,
      "oms": 5771,
      "aration": 5772,
      "chron": 5773,
      "ults": 5774,
      "licen": 5775,
      "intended": 5776,
      "finance": 5777,
      "2016": 5778,
      "adding": 5779,
      "someone": 5780,
      "occur": 5781,
      "Possible": 5782,
      "departed": 5783,
      "client": 5784,
      "fruits": 5785,
      "experts": 5786,
      "ING": 5787,
      "Science": 5788,
      "slain": 5789,
      "Many": 5790,
      "Rem": 5791,
      "bull": 5792,
      "cache": 5793,
      "mur": 5794,
      "ological": 5795,
      "ensive": 5796,
      "revo": 5797,
      "ounce": 5798,
      "producing": 5799,
      "margin": 5800,
      "handed": 5801,
      "offender": 5802,
      "1999": 5803,
      "multimodal": 5804,
      "thousands": 5805,
      "World": 5806,
      "hydropower": 5807,
      "branches": 5808,
      "Specify": 5809,
      "Tribunal": 5810,
      "inquire": 5811,
      "American": 5812,
      "sibilities": 5813,
      "Representative": 5814,
      "quickly": 5815,
      "Drugs": 5816,
      "Bikram": 5817,
      "Ger": 5818,
      "GIMP": 5819,
      "LRB": 5820,
      "Pok": 5821,
      "Phar": 5822,
      "lean": 5823,
      "allen": 5824,
      "shot": 5825,
      "expl": 5826,
      "nego": 5827,
      "aging": 5828,
      "dissol": 5829,
      "partial": 5830,
      "inema": 5831,
      "sheke": 5832,
      "invitation": 5833,
      "payments": 5834,
      "virt": 5835,
      "horse": 5836,
      "indicating": 5837,
      "journey": 5838,
      "inputs": 5839,
      "Labor": 5840,
      "Documents": 5841,
      "magaz": 5842,
      "software": 5843,
      "destruction": 5844,
      "Ef": 5845,
      "Har": 5846,
      "Lay": 5847,
      "TR": 5848,
      "oned": 5849,
      "tiff": 5850,
      "ulter": 5851,
      "thern": 5852,
      "auti": 5853,
      "ette": 5854,
      "fertiliz": 5855,
      "grace": 5856,
      "lamp": 5857,
      "Replace": 5858,
      "ulture": 5859,
      "Motion": 5860,
      "tourists": 5861,
      "prince": 5862,
      "utilized": 5863,
      "reforms": 5864,
      "bridge": 5865,
      "difficult": 5866,
      "Background": 5867,
      "Designation": 5868,
      "Network": 5869,
      "mortg": 5870,
      "decide": 5871,
      "Dra": 5872,
      "Page": 5873,
      "ii": 5874,
      "instit": 5875,
      "pros": 5876,
      "nome": 5877,
      "whoever": 5878,
      "impart": 5879,
      "numer": 5880,
      "Ass": 5881,
      "monthly": 5882,
      "backup": 5883,
      "........................": 5884,
      "bookmark": 5885,
      "chargeable": 5886,
      "consumed": 5887,
      "milk": 5888,
      "reduced": 5889,
      "faithful": 5890,
      "Audit": 5891,
      "Multi": 5892,
      "facilit": 5893,
      "Hu": 5894,
      "Oc": 5895,
      "lap": 5896,
      "nine": 5897,
      "alive": 5898,
      "stage": 5899,
      "stating": 5900,
      "serious": 5901,
      "rice": 5902,
      "explo": 5903,
      "1983": 5904,
      "Goes": 5905,
      "2055": 5906,
      "easily": 5907,
      "satisfactory": 5908,
      "successfully": 5909,
      "encrypted": 5910,
      "Automatically": 5911,
      "PGP": 5912,
      "autonomous": 5913,
      "camera": 5914,
      "Electricity": 5915,
      "Na": 5916,
      "Next": 5917,
      "Test": 5918,
      "gard": 5919,
      "gest": 5920,
      "hall": 5921,
      "native": 5922,
      "Internal": 5923,
      "ours": 5924,
      "Command": 5925,
      "boo": 5926,
      "Heze": 5927,
      "acting": 5928,
      "airport": 5929,
      "download": 5930,
      "Agency": 5931,
      "strengthen": 5932,
      "sustainable": 5933,
      "Repeal": 5934,
      "Maximum": 5935,
      "Isaac": 5936,
      "Ammon": 5937,
      "symbol": 5938,
      "Small": 5939,
      "Hezekiah": 5940,
      "Off": 5941,
      "grid": 5942,
      "lah": 5943,
      "mally": 5944,
      "ww": 5945,
      "antial": 5946,
      "ene": 5947,
      "asha": 5948,
      "rail": 5949,
      "willing": 5950,
      "imize": 5951,
      "Inte": 5952,
      "emon": 5953,
      "thereon": 5954,
      "fili": 5955,
      "Shift": 5956,
      "Legal": 5957,
      "conflic": 5958,
      "improvements": 5959,
      "currence": 5960,
      "Postal": 5961,
      "reserve": 5962,
      "mutual": 5963,
      "targeted": 5964,
      "59": 5965,
      "Full": 5966,
      "Mem": 5967,
      "kking": 5968,
      "pun": 5969,
      "pace": 5970,
      "random": 5971,
      "onto": 5972,
      "escape": 5973,
      "shared": 5974,
      "workshop": 5975,
      "played": 5976,
      "criminal": 5977,
      "Appoint": 5978,
      "fallen": 5979,
      "protected": 5980,
      "campus": 5981,
      "Transfer": 5982,
      "Follow": 5983,
      "ernacle": 5984,
      "IMAP": 5985,
      "Women": 5986,
      "exemption": 5987,
      "utility": 5988,
      "birds": 5989,
      "rehabilitation": 5990,
      "rafting": 5991,
      "River": 5992,
      "Pokhara": 5993,
      "300": 5994,
      "Brow": 5995,
      "Pal": 5996,
      "events": 5997,
      "gas": 5998,
      "wants": 5999,
      "nels": 6000,
      "doctor": 6001,
      "ministry": 6002,
      "syste": 6003,
      "generate": 6004,
      "risk": 6005,
      "student": 6006,
      "volun": 6007,
      "1964": 6008,
      "sanitation": 6009,
      "wickedness": 6010,
      "rendered": 6011,
      "NFE": 6012,
      "Written": 6013,
      "Expenditure": 6014,
      "Blessed": 6015,
      "nagar": 6016,
      "spl": 6017,
      "tong": 6018,
      "perish": 6019,
      "absent": 6020,
      "minutes": 6021,
      "phan": 6022,
      "marke": 6023,
      "tariff": 6024,
      "1997": 6025,
      "sinned": 6026,
      "examining": 6027,
      "judicial": 6028,
      "requests": 6029,
      "green": 6030,
      "Without": 6031,
      "widow": 6032,
      "particularly": 6033,
      "Academic": 6034,
      "quarter": 6035,
      "piece": 6036,
      "pipe": 6037,
      "usually": 6038,
      "Remote": 6039,
      "Jonathan": 6040,
      "Evaluation": 6041,
      "NU": 6042,
      "Would": 6043,
      "py": 6044,
      "zed": 6045,
      "inner": 6046,
      "enjoy": 6047,
      "icons": 6048,
      "devices": 6049,
      "unk": 6050,
      "fellow": 6051,
      "compul": 6052,
      "Decision": 6053,
      "Condu": 6054,
      "distance": 6055,
      "surve": 6056,
      "Before": 6057,
      "entering": 6058,
      "determining": 6059,
      "join": 6060,
      "finds": 6061,
      "Transa": 6062,
      "flag": 6063,
      "Delegation": 6064,
      "Industry": 6065,
      "besides": 6066,
      "obligation": 6067,
      "250s": 6068,
      "mixed": 6069,
      "Protection": 6070,
      "Black": 6071,
      "Give": 6072,
      "Hy": 6073,
      "IL": 6074,
      "Job": 6075,
      "OS": 6076,
      "Size": 6077,
      "stations": 6078,
      "deep": 6079,
      "cook": 6080,
      "magn": 6081,
      "withholding": 6082,
      "advis": 6083,
      "Selection": 6084,
      "Notice": 6085,
      "spaces": 6086,
      "tabernacle": 6087,
      "generating": 6088,
      "Made": 6089,
      "Municipal": 6090,
      "sanction": 6091,
      "participate": 6092,
      "Baal": 6093,
      "leader": 6094,
      "violence": 6095,
      "Martial": 6096,
      "substance": 6097,
      "Janak": 6098,
      "geographical": 6099,
      "Assyria": 6100,
      "Az": 6101,
      "Mal": 6102,
      "Source": 6103,
      "UT": 6104,
      "dates": 6105,
      "gift": 6106,
      "ib": 6107,
      "utili": 6108,
      "seat": 6109,
      "seventy": 6110,
      "heavy": 6111,
      "degrees": 6112,
      "urer": 6113,
      "ested": 6114,
      "Reco": 6115,
      "concern": 6116,
      "skin": 6117,
      "fixing": 6118,
      "bonded": 6119,
      "graphic": 6120,
      "mobilization": 6121,
      "Samaria": 6122,
      "matching": 6123,
      "histor": 6124,
      "probably": 6125,
      "adjustment": 6126,
      "viney": 6127,
      "medicines": 6128,
      "rapid": 6129,
      "prohibited": 6130,
      "/-": 6131,
      "64": 6132,
      "EG": 6133,
      "Last": 6134,
      "MP": 6135,
      "Never": 6136,
      "tres": 6137,
      "uity": 6138,
      "atin": 6139,
      "assemb": 6140,
      "stamp": 6141,
      "resign": 6142,
      "upgra": 6143,
      "certification": 6144,
      "famine": 6145,
      "Reset": 6146,
      "questions": 6147,
      "stopped": 6148,
      "accomplished": 6149,
      "parameters": 6150,
      "sleep": 6151,
      "Objectives": 6152,
      "advertisement": 6153,
      "Acti": 6154,
      "Cong": 6155,
      "Del": 6156,
      "Hel": 6157,
      "ae": 6158,
      "burned": 6159,
      "gent": 6160,
      "vise": 6161,
      "istic": 6162,
      "oul": 6163,
      "rote": 6164,
      "ceiling": 6165,
      "confirm": 6166,
      "clari": 6167,
      "cessive": 6168,
      "United": 6169,
      "specification": 6170,
      "ressed": 6171,
      "knows": 6172,
      "player": 6173,
      "highest": 6174,
      "conductor": 6175,
      "donor": 6176,
      "proceeding": 6177,
      "Fifth": 6178,
      "jobs": 6179,
      "tracks": 6180,
      "scholar": 6181,
      "recently": 6182,
      "corruption": 6183,
      "Medical": 6184,
      "earnings": 6185,
      "revealed": 6186,
      "Distribution": 6187,
      "thumbnail": 6188,
      ".>": 6189,
      "Lef": 6190,
      "March": 6191,
      "Str": 6192,
      "Tab": 6193,
      "zoom": 6194,
      "thresh": 6195,
      "secu": 6196,
      "disable": 6197,
      "cloud": 6198,
      "empow": 6199,
      "cents": 6200,
      "charging": 6201,
      "comment": 6202,
      "mailbox": 6203,
      "haps": 6204,
      "blue": 6205,
      "Mrs": 6206,
      "reflect": 6207,
      "promoting": 6208,
      "scroll": 6209,
      "Communication": 6210,
      "Plugin": 6211,
      "42": 6212,
      "<<": 6213,
      "CC": 6214,
      "Mag": 6215,
      "Tim": 6216,
      "almost": 6217,
      "iled": 6218,
      "story": 6219,
      "enda": 6220,
      "grains": 6221,
      "layout": 6222,
      "cale": 6223,
      "surround": 6224,
      "selecting": 6225,
      "offline": 6226,
      "links": 6227,
      "falling": 6228,
      "residential": 6229,
      "fulfilling": 6230,
      "sixty": 6231,
      "Custom": 6232,
      "Summ": 6233,
      "wrap": 6234,
      "creditors": 6235,
      "acquisition": 6236,
      "defendant": 6237,
      "flee": 6238,
      "Biratnagar": 6239,
      "Corporate": 6240,
      "47": 6241,
      "Have": 6242,
      "MI": 6243,
      "Used": 6244,
      "pting": 6245,
      "ught": 6246,
      "info": 6247,
      "alle": 6248,
      "bell": 6249,
      "logies": 6250,
      "plies": 6251,
      "liber": 6252,
      "compli": 6253,
      "expired": 6254,
      "tables": 6255,
      "distributor": 6256,
      "tized": 6257,
      "trump": 6258,
      "assistant": 6259,
      "witter": 6260,
      "acceler": 6261,
      "machin": 6262,
      "believed": 6263,
      "converted": 6264,
      "Build": 6265,
      "possessed": 6266,
      "wishes": 6267,
      "season": 6268,
      "63": 6269,
      "Ken": 6270,
      "Lumb": 6271,
      "UI": 6272,
      "amm": 6273,
      "flight": 6274,
      "hin": 6275,
      "arri": 6276,
      "lets": 6277,
      "rod": 6278,
      "demo": 6279,
      "riage": 6280,
      "ayan": 6281,
      "amed": 6282,
      "overwrite": 6283,
      "mine": 6284,
      "trash": 6285,
      "brings": 6286,
      "greatly": 6287,
      "seconds": 6288,
      "relationship": 6289,
      "paths": 6290,
      "successful": 6291,
      "classification": 6292,
      "Insert": 6293,
      "passenger": 6294,
      "Install": 6295,
      "component": 6296,
      "negoti": 6297,
      "Janakpur": 6298,
      "Dan": 6299,
      "Men": 6300,
      "mask": 6301,
      "incomes": 6302,
      "envis": 6303,
      "attain": 6304,
      "sex": 6305,
      "allo": 6306,
      "stated": 6307,
      "challen": 6308,
      "shame": 6309,
      "cooperation": 6310,
      "maid": 6311,
      "crete": 6312,
      "preach": 6313,
      "thereby": 6314,
      "Rece": 6315,
      "Hear": 6316,
      "pharma": 6317,
      "captivity": 6318,
      "azar": 6319,
      "determines": 6320,
      "horses": 6321,
      "feasible": 6322,
      "Ayurvedic": 6323,
      "narcotic": 6324,
      "autiful": 6325,
      "prosper": 6326,
      "Left": 6327,
      "CO": 6328,
      "Imm": 6329,
      "ax": 6330,
      "bra": 6331,
      "pil": 6332,
      "scar": 6333,
      "ux": 6334,
      "wrote": 6335,
      "incorpor": 6336,
      "decor": 6337,
      "advers": 6338,
      "Conf": 6339,
      "directed": 6340,
      "Aug": 6341,
      "messeng": 6342,
      "excell": 6343,
      "popup": 6344,
      "hearts": 6345,
      "fifth": 6346,
      "Applicant": 6347,
      "Security": 6348,
      "convert": 6349,
      "dictionary": 6350,
      "Labour": 6351,
      "partnership": 6352,
      "TER": 6353,
      "despite": 6354,
      "bacco": 6355,
      "tongue": 6356,
      "Lumbini": 6357,
      ")\".": 6358,
      "43": 6359,
      "66": 6360,
      "Mad": 6361,
      "cou": 6362,
      "jung": 6363,
      "trial": 6364,
      "itative": 6365,
      "procured": 6366,
      "digi": 6367,
      "ions": 6368,
      "manual": 6369,
      "Community": 6370,
      "affili": 6371,
      "Contra": 6372,
      "periodic": 6373,
      "invited": 6374,
      "publicity": 6375,
      "Environment": 6376,
      "termination": 6377,
      "complex": 6378,
      "paint": 6379,
      "cloth": 6380,
      "1981": 6381,
      "Atta": 6382,
      "2053": 6383,
      "demanded": 6384,
      "moral": 6385,
      "easy": 6386,
      "entrepreneurs": 6387,
      "walls": 6388,
      "sequence": 6389,
      "controlled": 6390,
      "Matters": 6391,
      "encamped": 6392,
      ".>>": 6393,
      "83": 6394,
      "Ara": 6395,
      "Ham": 6396,
      "Im": 6397,
      "Treas": 6398,
      "online": 6399,
      "rams": 6400,
      "idols": 6401,
      "tact": 6402,
      "tradition": 6403,
      "subordinate": 6404,
      "Detain": 6405,
      "grand": 6406,
      "directions": 6407,
      "vocational": 6408,
      "fulfillment": 6409,
      "1974": 6410,
      "violation": 6411,
      "Senior": 6412,
      "covering": 6413,
      "suffered": 6414,
      "ishable": 6415,
      "Governor": 6416,
      "chariots": 6417,
      "nutrition": 6418,
      "Appointment": 6419,
      "Did": 6420,
      "Ele": 6421,
      "Edom": 6422,
      "Main": 6423,
      "Zer": 6424,
      "din": 6425,
      "editing": 6426,
      "ita": 6427,
      "lech": 6428,
      "rooms": 6429,
      "urbs": 6430,
      "usage": 6431,
      "agents": 6432,
      "timely": 6433,
      "Offices": 6434,
      "corner": 6435,
      "End": 6436,
      "bron": 6437,
      "highway": 6438,
      "investments": 6439,
      "visited": 6440,
      "ordinances": 6441,
      "buried": 6442,
      "decline": 6443,
      "walked": 6444,
      "mediator": 6445,
      "claimed": 6446,
      "cells": 6447,
      "desolate": 6448,
      "41": 6449,
      "99": 6450,
      "Further": 6451,
      "hate": 6452,
      "uge": 6453,
      "inno": 6454,
      "endu": 6455,
      "atuity": 6456,
      "meters": 6457,
      "hair": 6458,
      "diplo": 6459,
      "computing": 6460,
      "possibility": 6461,
      "angry": 6462,
      "grass": 6463,
      "receives": 6464,
      "Regard": 6465,
      "Regulation": 6466,
      "determination": 6467,
      "Agent": 6468,
      "shape": 6469,
      "2059": 6470,
      "Private": 6471,
      "Implement": 6472,
      "plantation": 6473,
      "breadth": 6474,
      "Roy": 6475,
      "plugins": 6476,
      "probability": 6477,
      "Telecommunications": 6478,
      "Inserted": 6479,
      "Facilities": 6480,
      "rejected": 6481,
      "involvement": 6482,
      "identification": 6483,
      "digiKam": 6484,
      "Bha": 6485,
      "Dig": 6486,
      "SE": 6487,
      "indig": 6488,
      "restart": 6489,
      "rot": 6490,
      "beat": 6491,
      "beloved": 6492,
      "depreci": 6493,
      "mah": 6494,
      "verify": 6495,
      "cient": 6496,
      "pression": 6497,
      "compati": 6498,
      "curse": 6499,
      "Process": 6500,
      "hot": 6501,
      "foreigner": 6502,
      "salom": 6503,
      "Selected": 6504,
      "restore": 6505,
      "designate": 6506,
      "Absalom": 6507,
      "residing": 6508,
      "reduction": 6509,
      "recognition": 6510,
      "towns": 6511,
      "hectare": 6512,
      "----------------": 6513,
      "panchayats": 6514,
      "troub": 6515,
      "trouble": 6516,
      "cancelled": 6517,
      "brush": 6518,
      "judicating": 6519,
      "Eu": 6520,
      "Turn": 6521,
      "aign": 6522,
      "dish": 6523,
      "naked": 6524,
      "oring": 6525,
      "alit": 6526,
      "convic": 6527,
      "ider": 6528,
      "quit": 6529,
      "sover": 6530,
      "audi": 6531,
      "Nepalgunj": 6532,
      "urely": 6533,
      "jection": 6534,
      "tray": 6535,
      "2019": 6536,
      "cribes": 6537,
      "Construct": 6538,
      "expor": 6539,
      "playing": 6540,
      "seeking": 6541,
      "removal": 6542,
      "allowances": 6543,
      "spot": 6544,
      "2001": 6545,
      "examined": 6546,
      "substantial": 6547,
      "worthy": 6548,
      "allocated": 6549,
      "Production": 6550,
      "Frame": 6551,
      "Foundation": 6552,
      "Width": 6553,
      "72": 6554,
      "95": 6555,
      "ION": 6556,
      "Lia": 6557,
      "iv": 6558,
      "yment": 6559,
      "timber": 6560,
      "beautiful": 6561,
      "sugg": 6562,
      "irrig": 6563,
      "song": 6564,
      "Inquiry": 6565,
      "gradient": 6566,
      "registrar": 6567,
      "Requi": 6568,
      "partners": 6569,
      "invo": 6570,
      "Ent": 6571,
      "faces": 6572,
      "activate": 6573,
      "Always": 6574,
      "judice": 6575,
      "movement": 6576,
      "bearing": 6577,
      "testing": 6578,
      "Nebu": 6579,
      "sancti": 6580,
      "refuge": 6581,
      "cards": 6582,
      "Configuration": 6583,
      "Keyboard": 6584,
      "liquidation": 6585,
      "arguments": 6586,
      "testimony": 6587,
      "surveys": 6588,
      "%(": 6589,
      "',": 6590,
      "61": 6591,
      "PC": 6592,
      "PR": 6593,
      "Rename": 6594,
      "cattle": 6595,
      "ibility": 6596,
      "ology": 6597,
      "replaced": 6598,
      "align": 6599,
      "vertical": 6600,
      "exal": 6601,
      "weep": 6602,
      "minor": 6603,
      "dismis": 6604,
      "rename": 6605,
      "plication": 6606,
      "backend": 6607,
      "couldn": 6608,
      "royalty": 6609,
      "sensi": 6610,
      "contacts": 6611,
      "previously": 6612,
      "mobilize": 6613,
      "Object": 6614,
      "practices": 6615,
      "prayer": 6616,
      "stayed": 6617,
      "Citizenship": 6618,
      "pillars": 6619,
      "Payment": 6620,
      "Assist": 6621,
      "Bra": 6622,
      "ES": 6623,
      "bright": 6624,
      "bones": 6625,
      "pair": 6626,
      "scope": 6627,
      "vow": 6628,
      "voked": 6629,
      "tobacco": 6630,
      "withheld": 6631,
      "facts": 6632,
      "suburbs": 6633,
      "fined": 6634,
      "Provid": 6635,
      "phere": 6636,
      "transparent": 6637,
      "marked": 6638,
      "voc": 6639,
      "1998": 6640,
      "mandatory": 6641,
      "recording": 6642,
      "changing": 6643,
      "classes": 6644,
      "locked": 6645,
      "strengthening": 6646,
      "indicate": 6647,
      "pictures": 6648,
      "hilly": 6649,
      "belonging": 6650,
      "figures": 6651,
      "Jehoi": 6652,
      "captains": 6653,
      "Asia": 6654,
      "Arrangements": 6655,
      "ederal": 6656,
      "marketing": 6657,
      "utilize": 6658,
      "Liaison": 6659,
      "600": 6660,
      "Bas": 6661,
      "Count": 6662,
      "Gad": 6663,
      "OF": 6664,
      "Pas": 6665,
      "Pur": 6666,
      "Ve": 6667,
      "beds": 6668,
      "density": 6669,
      "fet": 6670,
      "gam": 6671,
      "lag": 6672,
      "mill": 6673,
      "reck": 6674,
      "inger": 6675,
      "university": 6676,
      "atell": 6677,
      "abor": 6678,
      "lift": 6679,
      "diversi": 6680,
      "preside": 6681,
      "feel": 6682,
      "intent": 6683,
      "Code": 6684,
      "prevention": 6685,
      "ariah": 6686,
      "Annu": 6687,
      "Meas": 6688,
      "availability": 6689,
      "commands": 6690,
      "everything": 6691,
      "broke": 6692,
      "responsibilities": 6693,
      "harvest": 6694,
      "Jeroboam": 6695,
      "Competent": 6696,
      "separately": 6697,
      "correction": 6698,
      "eaten": 6699,
      "claims": 6700,
      "Like": 6701,
      "deduction": 6702,
      "subsid": 6703,
      "Return": 6704,
      "precious": 6705,
      "guidelines": 6706,
      "technicians": 6707,
      "Investigation": 6708,
      "clarification": 6709,
      "indigen": 6710,
      "Bl": 6711,
      "Bro": 6712,
      "Bag": 6713,
      "Call": 6714,
      "GB": 6715,
      "cat": 6716,
      "slip": 6717,
      "alpha": 6718,
      "heir": 6719,
      "stre": 6720,
      "stars": 6721,
      "detention": 6722,
      "sured": 6723,
      "raising": 6724,
      "terday": 6725,
      "accur": 6726,
      "wealth": 6727,
      "agenda": 6728,
      "servers": 6729,
      "subsequ": 6730,
      "Progress": 6731,
      "married": 6732,
      "linen": 6733,
      "Afric": 6734,
      "improving": 6735,
      "blank": 6736,
      "bidding": 6737,
      "shareholder": 6738,
      "2058": 6739,
      "Physical": 6740,
      "stocks": 6741,
      "integer": 6742,
      "indicated": 6743,
      "appearance": 6744,
      "pane": 6745,
      "Valid": 6746,
      "thinks": 6747,
      "zzar": 6748,
      "Elijah": 6749,
      "mineral": 6750,
      "attempt": 6751,
      "Restric": 6752,
      "supervisor": 6753,
      "scattered": 6754,
      "punishable": 6755,
      "MIME": 6756,
      "Regarding": 6757,
      "Bri": 6758,
      "CR": 6759,
      "Econ": 6760,
      "LD": 6761,
      "dent": 6762,
      "gnome": 6763,
      "theless": 6764,
      "tiles": 6765,
      "alia": 6766,
      "ches": 6767,
      "mati": 6768,
      "perpet": 6769,
      "perfect": 6770,
      "unexpected": 6771,
      "Sets": 6772,
      "undertake": 6773,
      "Condition": 6774,
      "surplus": 6775,
      "listing": 6776,
      "Leave": 6777,
      "difference": 6778,
      "annum": 6779,
      "flat": 6780,
      "effort": 6781,
      "learn": 6782,
      "Database": 6783,
      "corresponding": 6784,
      "Warning": 6785,
      "Options": 6786,
      "municipal": 6787,
      "constitutional": 6788,
      "Pilot": 6789,
      "addresses": 6790,
      "anointed": 6791,
      "Population": 6792,
      "Pharise": 6793,
      "allocation": 6794,
      "400": 6795,
      "73": 6796,
      "Ban": 6797,
      "CU": 6798,
      "Cir": 6799,
      "Gr": 6800,
      "Rot": 6801,
      "elimin": 6802,
      "knew": 6803,
      "inety": 6804,
      "ching": 6805,
      "Sector": 6806,
      "Coordination": 6807,
      "herbs": 6808,
      "curriculum": 6809,
      "boat": 6810,
      "shepher": 6811,
      "whereas": 6812,
      "capt": 6813,
      "Adjust": 6814,
      "Stud": 6815,
      "solar": 6816,
      "managing": 6817,
      "daemon": 6818,
      "container": 6819,
      "warning": 6820,
      "campaign": 6821,
      "permitted": 6822,
      "traveled": 6823,
      "Supply": 6824,
      "Organiz": 6825,
      "quotation": 6826,
      "passengers": 6827,
      "Facebook": 6828,
      "plague": 6829,
      "atellite": 6830,
      "indigenous": 6831,
      "Ahi": 6832,
      "Sar": 6833,
      "Sort": 6834,
      "bap": 6835,
      "ka": 6836,
      "ki": 6837,
      "kid": 6838,
      "allevi": 6839,
      "arise": 6840,
      "dian": 6841,
      "weigh": 6842,
      "sau": 6843,
      "obedi": 6844,
      "cumb": 6845,
      "Requ": 6846,
      "Force": 6847,
      "operatives": 6848,
      "gratuity": 6849,
      "buffer": 6850,
      "normally": 6851,
      "wouldn": 6852,
      "abomin": 6853,
      "errors": 6854,
      "ourage": 6855,
      "breast": 6856,
      "forestation": 6857,
      "URI": 6858,
      "purchased": 6859,
      "contribute": 6860,
      "Copyright": 6861,
      "Tribhu": 6862,
      "Raj": 6863,
      "inserted": 6864,
      "investigating": 6865,
      "recipient": 6866,
      "discipline": 6867,
      "**": 6868,
      "Bhak": 6869,
      "Dani": 6870,
      "Han": 6871,
      "MG": 6872,
      "Pack": 6873,
      "gor": 6874,
      "ni": 6875,
      "alarms": 6876,
      "arrang": 6877,
      "secretariat": 6878,
      "melech": 6879,
      "delight": 6880,
      "tap": 6881,
      "adulter": 6882,
      "ulties": 6883,
      "exca": 6884,
      "soever": 6885,
      "gram": 6886,
      "Remember": 6887,
      "hotel": 6888,
      "Encry": 6889,
      "Among": 6890,
      "Log": 6891,
      "Deputy": 6892,
      "joined": 6893,
      "1988": 6894,
      "sanitary": 6895,
      "representatives": 6896,
      "intel": 6897,
      "supervise": 6898,
      "digital": 6899,
      "classified": 6900,
      "Connection": 6901,
      "journalist": 6902,
      "phase": 6903,
      "Ach": 6904,
      "Esau": 6905,
      "GNU": 6906,
      "Port": 6907,
      "Wall": 6908,
      "dir": 6909,
      "pg": 6910,
      "semi": 6911,
      "sugar": 6912,
      "hath": 6913,
      "istries": 6914,
      "Seeds": 6915,
      "licence": 6916,
      "uda": 6917,
      "tenancy": 6918,
      "Consum": 6919,
      "gration": 6920,
      "China": 6921,
      "activ": 6922,
      "venture": 6923,
      "partition": 6924,
      "bearers": 6925,
      "extensive": 6926,
      "Constitutional": 6927,
      "auditing": 6928,
      "authenticated": 6929,
      "resulting": 6930,
      "plaintiff": 6931,
      "gained": 6932,
      "attempts": 6933,
      "palette": 6934,
      "utterly": 6935,
      "accessible": 6936,
      "mortgage": 6937,
      "Drag": 6938,
      "Octo": 6939,
      "envisaged": 6940,
      "Annual": 6941,
      "Daniel": 6942,
      "\";": 6943,
      "Gre": 6944,
      "drew": 6945,
      "gon": 6946,
      "nity": 6947,
      "usive": 6948,
      "repro": 6949,
      "chancellor": 6950,
      "shout": 6951,
      "prompt": 6952,
      "excessive": 6953,
      "agreed": 6954,
      "moves": 6955,
      "lling": 6956,
      "prejudice": 6957,
      "imple": 6958,
      "Plant": 6959,
      "Exam": 6960,
      "payer": 6961,
      "considering": 6962,
      "2008": 6963,
      "Affairs": 6964,
      "Enterpr": 6965,
      "warrant": 6966,
      "statute": 6967,
      "representation": 6968,
      "associations": 6969,
      "Employment": 6970,
      "formulating": 6971,
      "Projects": 6972,
      "quanti": 6973,
      "Quar": 6974,
      "counter": 6975,
      "candidates": 6976,
      "rulers": 6977,
      "friendly": 6978,
      "werage": 6979,
      "prophesy": 6980,
      "technologies": 6981,
      "Remuneration": 6982,
      "machinery": 6983,
      "CUPS": 6984,
      "Consumers": 6985,
      "Its": 6986,
      "Sche": 6987,
      "eth": 6988,
      "iri": 6989,
      "stic": 6990,
      "alties": 6991,
      "beg": 6992,
      "memor": 6993,
      "chat": 6994,
      "noise": 6995,
      "iding": 6996,
      "derived": 6997,
      "lide": 6998,
      "onement": 6999,
      "endor": 7000,
      "domin": 7001,
      "goal": 7002,
      "ignored": 7003,
      "Advis": 7004,
      "highly": 7005,
      "Stat": 7006,
      "taxes": 7007,
      "procure": 7008,
      "busy": 7009,
      "1993": 7010,
      "contracts": 7011,
      "installment": 7012,
      "judges": 7013,
      "designed": 7014,
      "lasting": 7015,
      "nomination": 7016,
      "stuff": 7017,
      "initiate": 7018,
      "presided": 7019,
      "realized": 7020,
      "achievements": 7021,
      "technician": 7022,
      "applet": 7023,
      "incorporated": 7024,
      "October": 7025,
      "46": 7026,
      "51": 7027,
      "Ce": 7028,
      "East": 7029,
      "Far": 7030,
      "Font": 7031,
      "Mac": 7032,
      "Ori": 7033,
      "hint": 7034,
      "len": 7035,
      "mass": 7036,
      "wave": 7037,
      "zing": 7038,
      "inations": 7039,
      "rome": 7040,
      "stake": 7041,
      "sharing": 7042,
      "ada": 7043,
      "explain": 7044,
      "arts": 7045,
      "victim": 7046,
      "disbur": 7047,
      "tenders": 7048,
      "ilee": 7049,
      "Exten": 7050,
      "removing": 7051,
      "profits": 7052,
      "displaying": 7053,
      "automatic": 7054,
      "declaration": 7055,
      "channels": 7056,
      "broadcast": 7057,
      "Definition": 7058,
      "riches": 7059,
      "pleasant": 7060,
      "Various": 7061,
      "Egyptians": 7062,
      "swore": 7063,
      "Entrepreneur": 7064,
      "53": 7065,
      "Dip": 7066,
      "HMG": 7067,
      "MS": 7068,
      "Music": 7069,
      "Rad": 7070,
      "Sat": 7071,
      "rout": 7072,
      "tomb": 7073,
      "iter": 7074,
      "shor": 7075,
      "tapur": 7076,
      "kee": 7077,
      "uben": 7078,
      "dign": 7079,
      "ordered": 7080,
      "filters": 7081,
      "handled": 7082,
      "Method": 7083,
      "qualitative": 7084,
      "donkey": 7085,
      "linked": 7086,
      "showed": 7087,
      "comments": 7088,
      "150": 7089,
      "larger": 7090,
      "forests": 7091,
      "Birendra": 7092,
      "Life": 7093,
      "borders": 7094,
      "ladder": 7095,
      "Calendar": 7096,
      "Statis": 7097,
      "cros": 7098,
      "financing": 7099,
      "Renew": 7100,
      "Layer": 7101,
      "excellent": 7102,
      "81": 7103,
      "Ah": 7104,
      "Ahab": 7105,
      "Editor": 7106,
      "Fix": 7107,
      "Must": 7108,
      "Os": 7109,
      "VS": 7110,
      "eighth": 7111,
      "poured": 7112,
      "chad": 7113,
      "prostitute": 7114,
      "concrete": 7115,
      "perspe": 7116,
      "tags": 7117,
      "nezzar": 7118,
      "saints": 7119,
      "calam": 7120,
      "reless": 7121,
      "……..": 7122,
      "spare": 7123,
      "accorded": 7124,
      "lists": 7125,
      "although": 7126,
      "views": 7127,
      "Location": 7128,
      "processes": 7129,
      "spoil": 7130,
      "gger": 7131,
      "nali": 7132,
      "positions": 7133,
      "golden": 7134,
      "complain": 7135,
      "Birgunj": 7136,
      "Deleted": 7137,
      "dynam": 7138,
      "converti": 7139,
      "schema": 7140,
      "Super": 7141,
      "arbitration": 7142,
      "skilled": 7143,
      "beside": 7144,
      "yesterday": 7145,
      "Airport": 7146,
      "Approval": 7147,
      "garden": 7148,
      "trespass": 7149,
      "Nebuchad": 7150,
      "Nebuchadnezzar": 7151,
      "Election": 7152,
      "Gree": 7153,
      "Himal": 7154,
      "Lim": 7155,
      "Mountain": 7156,
      "Ow": 7157,
      "Rural": 7158,
      "Wr": 7159,
      "cinema": 7160,
      "gments": 7161,
      "nant": 7162,
      "thread": 7163,
      "influ": 7164,
      "incumb": 7165,
      "attorney": 7166,
      "memo": 7167,
      "ceed": 7168,
      "conson": 7169,
      "perce": 7170,
      "withdraw": 7171,
      "ades": 7172,
      "neck": 7173,
      "apart": 7174,
      "giver": 7175,
      "Heta": 7176,
      "tenth": 7177,
      "transit": 7178,
      "counted": 7179,
      "lementary": 7180,
      "holds": 7181,
      "Chal": 7182,
      "putting": 7183,
      "wards": 7184,
      "Audio": 7185,
      "encoun": 7186,
      "bids": 7187,
      "dama": 7188,
      "stipul": 7189,
      "horizontal": 7190,
      "sixth": 7191,
      "continually": 7192,
      "vacancy": 7193,
      "trusted": 7194,
      "zero": 7195,
      "Appropri": 7196,
      "Prisoner": 7197,
      "Quality": 7198,
      "Factor": 7199,
      "Karnali": 7200,
      "Tribhuvan": 7201,
      "()": 7202,
      "Ish": 7203,
      "Lu": 7204,
      "SV": 7205,
      "Surely": 7206,
      "blog": 7207,
      "ckets": 7208,
      "pac": 7209,
      "uation": 7210,
      "armed": 7211,
      "allot": 7212,
      "stro": 7213,
      "shaph": 7214,
      "concession": 7215,
      "taught": 7216,
      "series": 7217,
      "ureau": 7218,
      "features": 7219,
      "labe": 7220,
      "goat": 7221,
      "angels": 7222,
      "Concer": 7223,
      "Unit": 7224,
      "mainly": 7225,
      "checking": 7226,
      "Setup": 7227,
      "depending": 7228,
      "Roads": 7229,
      "Voters": 7230,
      "Mahendra": 7231,
      "Commerce": 7232,
      "retrieve": 7233,
      "decentralization": 7234,
      "enhancing": 7235,
      "Human": 7236,
      "Detainee": 7237,
      "Europe": 7238,
      "convicted": 7239,
      "Restriction": 7240,
      "consonance": 7241,
      "86": 7242,
      "87": 7243,
      "Ca": 7244,
      "Link": 7245,
      "Py": 7246,
      "Pict": 7247,
      "dol": 7248,
      "sched": 7249,
      "refer": 7250,
      "atonement": 7251,
      "arily": 7252,
      "leaves": 7253,
      "seized": 7254,
      "shar": 7255,
      "cease": 7256,
      "rable": 7257,
      "terror": 7258,
      "amended": 7259,
      "Income": 7260,
      "pressing": 7261,
      "preferences": 7262,
      "blem": 7263,
      "park": 7264,
      "shell": 7265,
      "completing": 7266,
      "Notary": 7267,
      "Commissioner": 7268,
      "occurrence": 7269,
      "customer": 7270,
      "Compensation": 7271,
      "Resol": 7272,
      "regularly": 7273,
      "intensive": 7274,
      "granting": 7275,
      "remnant": 7276,
      "Quan": 7277,
      "corrupt": 7278,
      "regulate": 7279,
      "friends": 7280,
      "Gibe": 7281,
      "shekels": 7282,
      "Treasury": 7283,
      "streets": 7284,
      "perpetual": 7285,
      "Pharisees": 7286,
      "Bhaktapur": 7287,
      "AC": 7288,
      "Asa": 7289,
      "Cred": 7290,
      "GT": 7291,
      "Pash": 7292,
      "bag": 7293,
      "census": 7294,
      "drun": 7295,
      "duly": 7296,
      "sis": 7297,
      "sides": 7298,
      "yo": 7299,
      "remin": 7300,
      "arrow": 7301,
      "forfe": 7302,
      "depri": 7303,
      "chain": 7304,
      "sue": 7305,
      "cement": 7306,
      "consign": 7307,
      "tape": 7308,
      "samp": 7309,
      "grave": 7310,
      "udes": 7311,
      "undertaking": 7312,
      "Reuben": 7313,
      "airfields": 7314,
      "passphrase": 7315,
      "ctiveness": 7316,
      "choice": 7317,
      "clock": 7318,
      "interested": 7319,
      "tization": 7320,
      "1985": 7321,
      "Comple": 7322,
      "Java": 7323,
      "sheets": 7324,
      "substanti": 7325,
      "dedic": 7326,
      "photos": 7327,
      "canceled": 7328,
      "Telecommunication": 7329,
      "aspect": 7330,
      "manufacturing": 7331,
      "SSL": 7332,
      "Asian": 7333,
      "temper": 7334,
      "agreements": 7335,
      "Ignore": 7336,
      "magazine": 7337,
      "diplomatic": 7338,
      "compatible": 7339,
      "LDAP": 7340,
      "reproach": 7341,
      "Examination": 7342,
      "Chalde": 7343,
      "Ano": 7344,
      "Cases": 7345,
      "Hand": 7346,
      "None": 7347,
      "Oh": 7348,
      "Vide": 7349,
      "eco": 7350,
      "vain": 7351,
      "wak": 7352,
      "escap": 7353,
      "entation": 7354,
      "explanation": 7355,
      "limits": 7356,
      "aud": 7357,
      "pursued": 7358,
      "lectual": 7359,
      "workspace": 7360,
      "cribing": 7361,
      "mates": 7362,
      "increment": 7363,
      "firms": 7364,
      "addy": 7365,
      "valued": 7366,
      "calling": 7367,
      "Register": 7368,
      "…………………": 7369,
      "denied": 7370,
      "1962": 7371,
      "looks": 7372,
      "confis": 7373,
      "encouraging": 7374,
      "mobilized": 7375,
      "Paper": 7376,
      "gotten": 7377,
      "preservation": 7378,
      "floor": 7379,
      "Jehoshaph": 7380,
      "ruler": 7381,
      "insert": 7382,
      "snap": 7383,
      "wheat": 7384,
      "Teacher": 7385,
      "conflict": 7386,
      "historical": 7387,
      "Economic": 7388,
      "Hetauda": 7389,
      "Jehoshaphat": 7390,
      "!'": 7391,
      "MB": 7392,
      "Our": 7393,
      "VD": 7394,
      "cere": 7395,
      "ients": 7396,
      "pu": 7397,
      "satellite": 7398,
      "tried": 7399,
      "wound": 7400,
      "wages": 7401,
      "infe": 7402,
      "recur": 7403,
      "rebel": 7404,
      "conform": 7405,
      "tea": 7406,
      "admission": 7407,
      "Info": 7408,
      "serial": 7409,
      "Com": 7410,
      "Cost": 7411,
      "therefor": 7412,
      "dispose": 7413,
      "owners": 7414,
      "prime": 7415,
      "posit": 7416,
      "womb": 7417,
      "stands": 7418,
      "posted": 7419,
      "Amor": 7420,
      "processed": 7421,
      "visual": 7422,
      "Levi": 7423,
      "username": 7424,
      "helped": 7425,
      "Compla": 7426,
      "aughter": 7427,
      "sender": 7428,
      "adopting": 7429,
      "Function": 7430,
      "debent": 7431,
      "bsite": 7432,
      "practical": 7433,
      "severe": 7434,
      "Policies": 7435,
      "Windows": 7436,
      "executing": 7437,
      "categories": 7438,
      "commodity": 7439,
      "floating": 7440,
      "cherub": 7441,
      "meaning": 7442,
      "lambs": 7443,
      "trainings": 7444,
      "stretched": 7445,
      "empowered": 7446,
      "liberal": 7447,
      "Quarantine": 7448,
      "52": 7449,
      "Cli": 7450,
      "Genti": 7451,
      "Hence": 7452,
      "Langu": 7453,
      "Money": 7454,
      "RGB": 7455,
      "Sus": 7456,
      "Stop": 7457,
      "bills": 7458,
      "fresh": 7459,
      "gated": 7460,
      "aly": 7461,
      "ara": 7462,
      "constra": 7463,
      "radi": 7464,
      "hawa": 7465,
      "owing": 7466,
      "moment": 7467,
      "dot": 7468,
      "venile": 7469,
      "vency": 7470,
      "minute": 7471,
      "tabs": 7472,
      "Author": 7473,
      "tempt": 7474,
      "directories": 7475,
      "requiring": 7476,
      "1980": 7477,
      "priorities": 7478,
      "Resource": 7479,
      "measuring": 7480,
      "largest": 7481,
      "Priority": 7482,
      "evidences": 7483,
      "refresh": 7484,
      "violates": 7485,
      "discussed": 7486,
      "affects": 7487,
      "summon": 7488,
      "bowed": 7489,
      "flocks": 7490,
      "controlling": 7491,
      "assignment": 7492,
      "Asher": 7493,
      "comparison": 7494,
      "cumulative": 7495,
      "Statistics": 7496,
      "56": 7497,
      ";'": 7498,
      "West": 7499,
      "mere": 7500,
      "scan": 7501,
      "thon": 7502,
      "indu": 7503,
      "ancient": 7504,
      "regi": 7505,
      "array": 7506,
      "entrust": 7507,
      "concept": 7508,
      "ulate": 7509,
      "sia": 7510,
      "eph": 7511,
      "agra": 7512,
      "doors": 7513,
      "upright": 7514,
      "facture": 7515,
      "ousing": 7516,
      "discard": 7517,
      "canal": 7518,
      "specifies": 7519,
      "captive": 7520,
      "importing": 7521,
      "grown": 7522,
      "evaluated": 7523,
      "Access": 7524,
      "Web": 7525,
      "expect": 7526,
      "glori": 7527,
      "stir": 7528,
      "Administrative": 7529,
      "utilizing": 7530,
      "traveling": 7531,
      "forwarded": 7532,
      "URLs": 7533,
      "HTTP": 7534,
      "witnesses": 7535,
      "Engine": 7536,
      "Woe": 7537,
      "engineering": 7538,
      "Download": 7539,
      "municipality": 7540,
      "Standard": 7541,
      "licensed": 7542,
      "Transaction": 7543,
      ".”": 7544,
      "Bodies": 7545,
      "Game": 7546,
      "GDP": 7547,
      "Low": 7548,
      "Mil": 7549,
      "Scale": 7550,
      "WAR": 7551,
      "apost": 7552,
      "auty": 7553,
      "ium": 7554,
      "kip": 7555,
      "ml": 7556,
      "vy": 7557,
      "rect": 7558,
      "tember": 7559,
      "arest": 7560,
      "ciples": 7561,
      "Int": 7562,
      "Through": 7563,
      "thereafter": 7564,
      "Provide": 7565,
      "relations": 7566,
      "White": 7567,
      "spite": 7568,
      "fulfil": 7569,
      "signing": 7570,
      "guil": 7571,
      "foundation": 7572,
      "seeing": 7573,
      "investor": 7574,
      "salt": 7575,
      "bitter": 7576,
      "registering": 7577,
      "Alt": 7578,
      "economically": 7579,
      "evaluating": 7580,
      "About": 7581,
      "bench": 7582,
      "depth": 7583,
      "clearance": 7584,
      "grew": 7585,
      "1971": 7586,
      "Library": 7587,
      "Guide": 7588,
      "Simon": 7589,
      "tower": 7590,
      "individuals": 7591,
      "desirable": 7592,
      "heritage": 7593,
      "Highway": 7594,
      "deducting": 7595,
      "Share": 7596,
      "orientation": 7597,
      "cultivated": 7598,
      "belongs": 7599,
      "sweet": 7600,
      "Micro": 7601,
      "September": 7602,
      "calculated": 7603,
      "insolvent": 7604,
      "abundance": 7605,
      "mosphere": 7606,
      "scholarship": 7607,
      "Implementation": 7608,
      "Extension": 7609,
      "Another": 7610,
      "Gentiles": 7611,
      "agraph": 7612,
      "//": 7613,
      "76": 7614,
      "Amen": 7615,
      "Dh": 7616,
      "Sof": 7617,
      "gir": 7618,
      "sand": 7619,
      "scor": 7620,
      "wage": 7621,
      "ale": 7622,
      "oucher": 7623,
      "fores": 7624,
      "define": 7625,
      "loy": 7626,
      "rier": 7627,
      "orting": 7628,
      "Seal": 7629,
      "fertil": 7630,
      "izont": 7631,
      "parency": 7632,
      "bases": 7633,
      "airports": 7634,
      "organize": 7635,
      "Motor": 7636,
      "Amending": 7637,
      "extreme": 7638,
      "foolish": 7639,
      "effectiveness": 7640,
      "linking": 7641,
      "2003": 7642,
      "popular": 7643,
      "employed": 7644,
      "bidders": 7645,
      "tests": 7646,
      "farmer": 7647,
      "maps": 7648,
      "speaks": 7649,
      "adopt": 7650,
      "reducing": 7651,
      "purchasing": 7652,
      "locally": 7653,
      "scripts": 7654,
      "instruction": 7655,
      "Bug": 7656,
      "dealt": 7657,
      "released": 7658,
      "Prad": 7659,
      "Geo": 7660,
      "awarded": 7661,
      "wildlife": 7662,
      "Arrangement": 7663,
      "strategies": 7664,
      "Advisory": 7665,
      "GTK": 7666,
      "Video": 7667,
      "izontally": 7668,
      "::": 7669,
      "Aviation": 7670,
      "IR": 7671,
      "Sid": 7672,
      "Vir": 7673,
      "xim": 7674,
      "yen": 7675,
      "atmosphere": 7676,
      "hea": 7677,
      "heat": 7678,
      "ride": 7679,
      "withhold": 7680,
      "adap": 7681,
      "plate": 7682,
      "exact": 7683,
      "anyway": 7684,
      "trap": 7685,
      "dissolution": 7686,
      "goats": 7687,
      "curing": 7688,
      "proclaim": 7689,
      "............................": 7690,
      "vised": 7691,
      "ashes": 7692,
      "Others": 7693,
      "Point": 7694,
      "driven": 7695,
      "climb": 7696,
      "1963": 7697,
      "demands": 7698,
      "television": 7699,
      "treated": 7700,
      "Working": 7701,
      "exercised": 7702,
      "introducing": 7703,
      "sacrifices": 7704,
      "relatives": 7705,
      "organisation": 7706,
      "Division": 7707,
      "POP": 7708,
      "brick": 7709,
      "bricks": 7710,
      "dissolved": 7711,
      "dinance": 7712,
      "Royal": 7713,
      "Digital": 7714,
      "Conditions": 7715,
      "Renewal": 7716,
      "57": 7717,
      "Ahaz": 7718,
      "City": 7719,
      "Field": 7720,
      "GUI": 7721,
      "Lam": 7722,
      "Mach": 7723,
      "Oct": 7724,
      "Rate": 7725,
      "Sports": 7726,
      "pour": 7727,
      "ptions": 7728,
      "troller": 7729,
      "vince": 7730,
      "wan": 7731,
      "indirectly": 7732,
      "arre": 7733,
      "astern": 7734,
      "rob": 7735,
      "meta": 7736,
      "shield": 7737,
      "whol": 7738,
      "abul": 7739,
      "pot": 7740,
      "izard": 7741,
      "priva": 7742,
      "butter": 7743,
      "interval": 7744,
      "producer": 7745,
      "cargo": 7746,
      "publicly": 7747,
      "signal": 7748,
      "distributing": 7749,
      "increases": 7750,
      "connecting": 7751,
      "virgin": 7752,
      "Directory": 7753,
      "Comptroller": 7754,
      "Trash": 7755,
      "Gazetted": 7756,
      "credited": 7757,
      "proceeds": 7758,
      "1972": 7759,
      "1979": 7760,
      "Contin": 7761,
      "draft": 7762,
      "executable": 7763,
      "Fees": 7764,
      "liquidator": 7765,
      "Missing": 7766,
      "`':": 7767,
      "preserve": 7768,
      "swear": 7769,
      "deceit": 7770,
      "literacy": 7771,
      "borrower": 7772,
      "Campus": 7773,
      "knowingly": 7774,
      "democra": 7775,
      "Attach": 7776,
      "stipulated": 7777,
      "audited": 7778,
      "71": 7779,
      "Dam": 7780,
      "Hal": 7781,
      "Ju": 7782,
      "Mater": 7783,
      "fro": 7784,
      "fought": 7785,
      "gations": 7786,
      "tents": 7787,
      "uters": 7788,
      "orry": 7789,
      "alous": 7790,
      "outer": 7791,
      "arises": 7792,
      "sewerage": 7793,
      "iles": 7794,
      "dex": 7795,
      "debu": 7796,
      "isting": 7797,
      "cious": 7798,
      "ept": 7799,
      "saver": 7800,
      "outstanding": 7801,
      "disqualified": 7802,
      "reno": 7803,
      "phy": 7804,
      "whenever": 7805,
      "actually": 7806,
      "transmit": 7807,
      "handmaid": 7808,
      "omes": 7809,
      "Ministers": 7810,
      "Amend": 7811,
      "Should": 7812,
      "extending": 7813,
      "Sched": 7814,
      "Lock": 7815,
      "idea": 7816,
      "Canal": 7817,
      "App": 7818,
      "solve": 7819,
      "Ordinance": 7820,
      "mises": 7821,
      "Prepar": 7822,
      "pleased": 7823,
      "Neither": 7824,
      "Syri": 7825,
      "Printer": 7826,
      "indicates": 7827,
      "younger": 7828,
      "garment": 7829,
      "structures": 7830,
      "expanding": 7831,
      "college": 7832,
      "lump": 7833,
      "patterns": 7834,
      "Elisha": 7835,
      "Rights": 7836,
      "Staff": 7837,
      "America": 7838,
      "households": 7839,
      "griev": 7840,
      "Sync": 7841,
      "confidential": 7842,
      "behavior": 7843,
      "Integr": 7844,
      "Following": 7845,
      "Nevertheless": 7846,
      "Radio": 7847,
      "KS": 7848,
      "Million": 7849,
      "Twitter": 7850,
      "Ur": 7851,
      "Wa": 7852,
      "dil": 7853,
      "tin": 7854,
      "wings": 7855,
      "ystem": 7856,
      "forts": 7857,
      "healed": 7858,
      "star": 7859,
      "deeds": 7860,
      "conversion": 7861,
      "notified": 7862,
      "felt": 7863,
      "computed": 7864,
      "2021": 7865,
      "Review": 7866,
      "Hebron": 7867,
      "vailing": 7868,
      "receivable": 7869,
      "akes": 7870,
      "akim": 7871,
      "highways": 7872,
      "Arbitr": 7873,
      "wanted": 7874,
      "provisional": 7875,
      "starts": 7876,
      "headers": 7877,
      "documentation": 7878,
      "Leban": 7879,
      "2004": 7880,
      "merch": 7881,
      "souls": 7882,
      "1960": 7883,
      "authorities": 7884,
      "circumc": 7885,
      "Terms": 7886,
      "instrument": 7887,
      "Listen": 7888,
      "manually": 7889,
      "manufacture": 7890,
      "authenticate": 7891,
      "listened": 7892,
      "summons": 7893,
      "Geor": 7894,
      "Retrie": 7895,
      "beneficial": 7896,
      "seminars": 7897,
      "CHAP": 7898,
      "compulsory": 7899,
      "sexual": 7900,
      "messengers": 7901,
      "Passover": 7902,
      "damaged": 7903,
      "Map": 7904,
      "Si": 7905,
      "Sty": 7906,
      "bought": 7907,
      "ience": 7908,
      "nment": 7909,
      "pick": 7910,
      "leaven": 7911,
      "beauty": 7912,
      "forget": 7913,
      "node": 7914,
      "unauthorized": 7915,
      "mmittee": 7916,
      "ounced": 7917,
      "website": 7918,
      "som": 7919,
      "titudes": 7920,
      "traders": 7921,
      "spect": 7922,
      "affairs": 7923,
      "parsing": 7924,
      "marriage": 7925,
      "keyring": 7926,
      "offences": 7927,
      "passes": 7928,
      "Look": 7929,
      "taxable": 7930,
      "1986": 7931,
      "ourable": 7932,
      "depends": 7933,
      "plug": 7934,
      "continuing": 7935,
      "Road": 7936,
      "patent": 7937,
      "vested": 7938,
      "synchron": 7939,
      "devour": 7940,
      "pleasure": 7941,
      "demonstr": 7942,
      "promised": 7943,
      "Changes": 7944,
      "suggestions": 7945,
      "exalted": 7946,
      "abominations": 7947,
      "Credit": 7948,
      "Language": 7949,
      "CHAPTER": 7950,
      "./": 7951,
      "74": 7952,
      "Aid": 7953,
      "Ed": 7954,
      "Grant": 7955,
      "eks": 7956,
      "pred": 7957,
      "sack": 7958,
      "zes": 7959,
      "rebu": 7960,
      "consp": 7961,
      "tages": 7962,
      "haven": 7963,
      "Ini": 7964,
      "upward": 7965,
      "obstruction": 7966,
      "2013": 7967,
      "Dec": 7968,
      "Reh": 7969,
      "parents": 7970,
      "nuclear": 7971,
      "Extra": 7972,
      "capability": 7973,
      "Arch": 7974,
      "fixation": 7975,
      "principles": 7976,
      "measured": 7977,
      "flour": 7978,
      "farms": 7979,
      "Works": 7980,
      "boundary": 7981,
      "deputation": 7982,
      "Bala": 7983,
      "restricted": 7984,
      "thrown": 7985,
      "simply": 7986,
      "nursing": 7987,
      "latest": 7988,
      "systematic": 7989,
      "troubled": 7990,
      "convertible": 7991,
      "Factory": 7992,
      "regime": 7993,
      "abulary": 7994,
      "leavened": 7995,
      "78": 7996,
      "://": 7997,
      "Bang": 7998,
      "Hill": 7999,
      "Had": 8000,
      "Housing": 8001,
      "Master": 8002,
      "NE": 8003,
      "OL": 8004,
      "Put": 8005,
      "Sorry": 8006,
      "Uzz": 8007,
      "federal": 8008,
      "gers": 8009,
      "kde": 8010,
      "sow": 8011,
      "anmar": 8012,
      "tish": 8013,
      "ala": 8014,
      "leg": 8015,
      "sees": 8016,
      "forsa": 8017,
      "het": 8018,
      "concent": 8019,
      "condem": 8020,
      "achel": 8021,
      "uli": 8022,
      "nearest": 8023,
      "moti": 8024,
      "yours": 8025,
      "upgrade": 8026,
      "comply": 8027,
      "intend": 8028,
      "premises": 8029,
      "boast": 8030,
      "Which": 8031,
      "Cons": 8032,
      "exporter": 8033,
      "phen": 8034,
      "carries": 8035,
      "grind": 8036,
      "supposed": 8037,
      "survi": 8038,
      "Chan": 8039,
      "earning": 8040,
      "foo": 8041,
      "Street": 8042,
      "limitation": 8043,
      "Classi": 8044,
      "encing": 8045,
      "255": 8046,
      "circle": 8047,
      "committing": 8048,
      "immediate": 8049,
      "Licensee": 8050,
      "Myanmar": 8051,
      "trekking": 8052,
      "completely": 8053,
      "styles": 8054,
      "aimed": 8055,
      "retired": 8056,
      "AND": 8057,
      "allocate": 8058,
      "biological": 8059,
      "lamb": 8060,
      "cancellation": 8061,
      "arrested": 8062,
      "tube": 8063,
      "fertilizers": 8064,
      "vineyard": 8065,
      "secutive": 8066,
      "Eleazar": 8067,
      "sensitive": 8068,
      "Status": 8069,
      "Resolution": 8070,
      "(%": 8071,
      ":.": 8072,
      "Due": 8073,
      "Fill": 8074,
      "James": 8075,
      "Ku": 8076,
      "Pan": 8077,
      "Sc": 8078,
      "TD": 8079,
      "cau": 8080,
      "danger": 8081,
      "zil": 8082,
      "ero": 8083,
      "engra": 8084,
      "ason": 8085,
      "asking": 8086,
      "assion": 8087,
      "itan": 8088,
      "roof": 8089,
      "illegal": 8090,
      "consecutive": 8091,
      "illa": 8092,
      "exclud": 8093,
      "Selah": 8094,
      "mbling": 8095,
      "faults": 8096,
      "prey": 8097,
      "preced": 8098,
      "prequalification": 8099,
      "phys": 8100,
      "deser": 8101,
      "desiring": 8102,
      "newly": 8103,
      "Isn": 8104,
      "offers": 8105,
      "vocation": 8106,
      "Login": 8107,
      "appointing": 8108,
      "Stru": 8109,
      "Articles": 8110,
      "contractor": 8111,
      "Team": 8112,
      "sells": 8113,
      "Primary": 8114,
      "burning": 8115,
      "gene": 8116,
      "regulations": 8117,
      "Loading": 8118,
      "bride": 8119,
      "advanced": 8120,
      "Commercial": 8121,
      "facilitate": 8122,
      "Conduct": 8123,
      "Recovery": 8124,
      "Brazil": 8125,
      "Rotate": 8126,
      "arranged": 8127,
      "Chaldeans": 8128,
      "Lebanon": 8129,
      "82": 8130,
      "93": 8131,
      "Ain": 8132,
      "Bring": 8133,
      "Dou": 8134,
      "Drin": 8135,
      "Icon": 8136,
      "June": 8137,
      "Lin": 8138,
      "finger": 8139,
      "latter": 8140,
      "pip": 8141,
      "uta": 8142,
      "zones": 8143,
      "ony": 8144,
      "reply": 8145,
      "meat": 8146,
      "loves": 8147,
      "notify": 8148,
      "uled": 8149,
      "abuse": 8150,
      "exhibit": 8151,
      "imbur": 8152,
      "Index": 8153,
      "tainment": 8154,
      "Dean": 8155,
      "Dece": 8156,
      "Debt": 8157,
      "everlasting": 8158,
      "watershed": 8159,
      "Districts": 8160,
      "headquarters": 8161,
      "judged": 8162,
      "Emphas": 8163,
      "equipments": 8164,
      "mium": 8165,
      "People": 8166,
      "blessing": 8167,
      "clothed": 8168,
      "manufacturer": 8169,
      "insolvency": 8170,
      "confidence": 8171,
      "nnn": 8172,
      "resignation": 8173,
      "affiliated": 8174,
      "invoice": 8175,
      "Pashup": 8176,
      "AB": 8177,
      "Bad": 8178,
      "Bureau": 8179,
      "CVS": 8180,
      "Ever": 8181,
      "Haz": 8182,
      "LE": 8183,
      "Tal": 8184,
      "Tru": 8185,
      "eternal": 8186,
      "gency": 8187,
      "iel": 8188,
      "khet": 8189,
      "snow": 8190,
      "anced": 8191,
      "andum": 8192,
      "segment": 8193,
      "hah": 8194,
      "odrome": 8195,
      "antly": 8196,
      "Incre": 8197,
      "outlay": 8198,
      "disappointed": 8199,
      "2018": 8200,
      "2017": 8201,
      "afforestation": 8202,
      "Recomm": 8203,
      "Consu": 8204,
      "Contact": 8205,
      "umla": 8206,
      "Until": 8207,
      "marvel": 8208,
      "pens": 8209,
      "terminated": 8210,
      "activated": 8211,
      "itors": 8212,
      "torn": 8213,
      "Company": 8214,
      "recommendations": 8215,
      "Attorney": 8216,
      "prink": 8217,
      "consume": 8218,
      "breach": 8219,
      "horns": 8220,
      "studied": 8221,
      "declined": 8222,
      "succession": 8223,
      "expressed": 8224,
      "dwelling": 8225,
      "matches": 8226,
      "customers": 8227,
      "futures": 8228,
      "achievement": 8229,
      "cultivation": 8230,
      "doubt": 8231,
      "testify": 8232,
      "remembered": 8233,
      "advantage": 8234,
      "recipients": 8235,
      "ammun": 8236,
      "Bhaira": 8237,
      "Owner": 8238,
      "December": 8239,
      "Cance": 8240,
      "DN": 8241,
      "Email": 8242,
      "RA": 8243,
      "Town": 8244,
      "UE": 8245,
      "Using": 8246,
      "hit": 8247,
      "ja": 8248,
      "psy": 8249,
      "threat": 8250,
      "thel": 8251,
      "injur": 8252,
      "ford": 8253,
      "heal": 8254,
      "street": 8255,
      "macro": 8256,
      "lop": 8257,
      "pointer": 8258,
      "moon": 8259,
      "setup": 8260,
      "cked": 8261,
      "paragraph": 8262,
      "desc": 8263,
      "lawy": 8264,
      "talk": 8265,
      "Arise": 8266,
      "searched": 8267,
      "invested": 8268,
      "whatsoever": 8269,
      "Track": 8270,
      "Persons": 8271,
      "Tell": 8272,
      "circulation": 8273,
      "tested": 8274,
      "organizational": 8275,
      "KDEPrint": 8276,
      "refused": 8277,
      "continues": 8278,
      "contributed": 8279,
      "learning": 8280,
      "discussions": 8281,
      "Fee": 8282,
      "principle": 8283,
      "Operations": 8284,
      "boundaries": 8285,
      "cultiv": 8286,
      "restrictions": 8287,
      "addressee": 8288,
      "affliction": 8289,
      "Galilee": 8290,
      "privileges": 8291,
      "exportable": 8292,
      "catalog": 8293,
      "alleviation": 8294,
      "intellectual": 8295,
      "Scheme": 8296,
      "circumcised": 8297,
      "54": 8298,
      "68": 8299,
      "Cy": 8300,
      "Dang": 8301,
      "Eastern": 8302,
      "Hot": 8303,
      "Kanch": 8304,
      "Mi": 8305,
      "Mary": 8306,
      "OV": 8307,
      "Tre": 8308,
      "Zoom": 8309,
      "aur": 8310,
      "bah": 8311,
      "flies": 8312,
      "gence": 8313,
      "hat": 8314,
      "ires": 8315,
      "pending": 8316,
      "sprink": 8317,
      "”.": 8318,
      "enlisted": 8319,
      "arc": 8320,
      "ardi": 8321,
      "asc": 8322,
      "entrance": 8323,
      "seats": 8324,
      "hem": 8325,
      "stead": 8326,
      "procuring": 8327,
      "ulations": 8328,
      "diff": 8329,
      "weap": 8330,
      "Sea": 8331,
      "faint": 8332,
      "lowest": 8333,
      "quiet": 8334,
      "expensive": 8335,
      "Ask": 8336,
      "needy": 8337,
      "allowing": 8338,
      "documentary": 8339,
      "connections": 8340,
      "earthqu": 8341,
      "entives": 8342,
      "managers": 8343,
      "ordinance": 8344,
      "Preferences": 8345,
      "courses": 8346,
      "equally": 8347,
      "Syria": 8348,
      "Within": 8349,
      "authorization": 8350,
      "exceedingly": 8351,
      "nearly": 8352,
      "Liquid": 8353,
      "dispatch": 8354,
      "sync": 8355,
      "difficulty": 8356,
      "ATION": 8357,
      "quoted": 8358,
      "Licencee": 8359,
      "split": 8360,
      "perspective": 8361,
      "encountered": 8362,
      "Software": 8363,
      "Ak": 8364,
      "Long": 8365,
      "Pau": 8366,
      "bin": 8367,
      "dar": 8368,
      "dating": 8369,
      "drought": 8370,
      "zonal": 8371,
      "arrows": 8372,
      "sued": 8373,
      "shift": 8374,
      "perhaps": 8375,
      "adab": 8376,
      "lihood": 8377,
      "div": 8378,
      "Sec": 8379,
      "vidence": 8380,
      "disposed": 8381,
      "disobedi": 8382,
      "obst": 8383,
      "Nov": 8384,
      "expense": 8385,
      "Box": 8386,
      "approxim": 8387,
      "aken": 8388,
      "Minimum": 8389,
      "fool": 8390,
      "joining": 8391,
      "socio": 8392,
      "abomination": 8393,
      "repent": 8394,
      "kindled": 8395,
      "wireless": 8396,
      "deny": 8397,
      "brew": 8398,
      "military": 8399,
      "commerce": 8400,
      "transferring": 8401,
      "multiply": 8402,
      "largely": 8403,
      "habitation": 8404,
      "Surkhet": 8405,
      "favourable": 8406,
      "medicine": 8407,
      "Charge": 8408,
      "Midian": 8409,
      "Ship": 8410,
      "PDA": 8411,
      "mechanism": 8412,
      "revoke": 8413,
      "Hydro": 8414,
      "incumbent": 8415,
      "labels": 8416,
      "guilty": 8417,
      "dilig": 8418,
      "77": 8419,
      "88": 8420,
      "Culture": 8421,
      "OC": 8422,
      "SL": 8423,
      "Zed": 8424,
      "fts": 8425,
      "ko": 8426,
      "astic": 8427,
      "leaving": 8428,
      "vege": 8429,
      "logo": 8430,
      "socket": 8431,
      "mbled": 8432,
      "commence": 8433,
      "jealous": 8434,
      "Cot": 8435,
      "ifts": 8436,
      "submits": 8437,
      "pride": 8438,
      "directive": 8439,
      "capita": 8440,
      "Ener": 8441,
      "Bethel": 8442,
      "choo": 8443,
      "variation": 8444,
      "variables": 8445,
      "1996": 8446,
      "formats": 8447,
      "compromise": 8448,
      "keeps": 8449,
      "dividend": 8450,
      "liaison": 8451,
      "believes": 8452,
      "Philip": 8453,
      "schemes": 8454,
      "Inspection": 8455,
      "restriction": 8456,
      "soft": 8457,
      "simpli": 8458,
      "thoughts": 8459,
      "Building": 8460,
      "pilot": 8461,
      "adversaries": 8462,
      "excavation": 8463,
      "Write": 8464,
      "Picture": 8465,
      "blemish": 8466,
      "substantially": 8467,
      "Emphasis": 8468,
      "Br": 8469,
      "Fed": 8470,
      "Named": 8471,
      "TH": 8472,
      "jute": 8473,
      "kh": 8474,
      "kan": 8475,
      "loud": 8476,
      "pic": 8477,
      "rings": 8478,
      "scribes": 8479,
      "independent": 8480,
      "reimbur": 8481,
      "aliah": 8482,
      "race": 8483,
      "rage": 8484,
      "doctors": 8485,
      "icho": 8486,
      "certify": 8487,
      "curve": 8488,
      "2015": 8489,
      "clusion": 8490,
      "accru": 8491,
      "acknow": 8492,
      "spend": 8493,
      "transparency": 8494,
      "wherever": 8495,
      "viewer": 8496,
      "crime": 8497,
      "voting": 8498,
      "wells": 8499,
      "atories": 8500,
      "2009": 8501,
      "foodgrains": 8502,
      "annually": 8503,
      "courts": 8504,
      "residents": 8505,
      "chairman": 8506,
      "smaller": 8507,
      "Sixty": 8508,
      "2050": 8509,
      "Administrator": 8510,
      "planted": 8511,
      "mobilisation": 8512,
      "godown": 8513,
      "suming": 8514,
      "Highlight": 8515,
      "collab": 8516,
      "considerable": 8517,
      "Accordingly": 8518,
      "adjusted": 8519,
      "petroleum": 8520,
      "Qualification": 8521,
      "binding": 8522,
      "slaughter": 8523,
      "crash": 8524,
      "prospecting": 8525,
      "lodge": 8526,
      "Property": 8527,
      "aerodrome": 8528,
      "suggestion": 8529,
      "cookies": 8530,
      "UTF": 8531,
      "Help": 8532,
      "forsaken": 8533,
      "Classification": 8534,
      "Energy": 8535,
      "01": 8536,
      "Big": 8537,
      "EN": 8538,
      "Has": 8539,
      "MA": 8540,
      "Vis": 8541,
      "Voc": 8542,
      "catch": 8543,
      "honey": 8544,
      "lor": 8545,
      "mn": 8546,
      "pite": 8547,
      "wept": 8548,
      "thematic": 8549,
      "reel": 8550,
      "itude": 8551,
      "lebr": 8552,
      "mel": 8553,
      "coal": 8554,
      "prosy": 8555,
      "celebr": 8556,
      "terai": 8557,
      "overseas": 8558,
      "movi": 8559,
      "compet": 8560,
      "compound": 8561,
      "subtra": 8562,
      "…….": 8563,
      "Expen": 8564,
      "constructing": 8565,
      "offset": 8566,
      "fraud": 8567,
      "paired": 8568,
      "salm": 8569,
      "filesystem": 8570,
      "ensor": 8571,
      "runs": 8572,
      "Generate": 8573,
      "1982": 8574,
      "comfor": 8575,
      "Setting": 8576,
      "balanced": 8577,
      "Collection": 8578,
      "Sheol": 8579,
      "Permission": 8580,
      "royal": 8581,
      "Creating": 8582,
      "breath": 8583,
      "refuse": 8584,
      "locations": 8585,
      "guardian": 8586,
      "incentives": 8587,
      "Mayor": 8588,
      "January": 8589,
      "Praise": 8590,
      "lady": 8591,
      "Calcul": 8592,
      "Specifies": 8593,
      "rejoic": 8594,
      "Institutions": 8595,
      "Abimelech": 8596,
      "comparative": 8597,
      "Template": 8598,
      "Estim": 8599,
      "crown": 8600,
      "frequency": 8601,
      "exploration": 8602,
      "ashamed": 8603,
      "routes": 8604,
      "Appropriate": 8605,
      "Quanta": 8606,
      "samples": 8607,
      "escaped": 8608,
      "merely": 8609,
      "Integrated": 8610,
      "Urban": 8611,
      "Style": 8612,
      "Zedek": 8613,
      "collaboration": 8614,
      "Event": 8615,
      "Latin": 8616,
      "Mc": 8617,
      "QL": 8618,
      "Rob": 8619,
      "iar": 8620,
      "voucher": 8621,
      "wing": 8622,
      "ão": 8623,
      "thirst": 8624,
      "threw": 8625,
      "insured": 8626,
      "tied": 8627,
      "redeem": 8628,
      "revoked": 8629,
      "ander": 8630,
      "stability": 8631,
      "covers": 8632,
      "lots": 8633,
      "ids": 8634,
      "sim": 8635,
      "exhibition": 8636,
      "lib": 8637,
      "orted": 8638,
      "optim": 8639,
      "pursue": 8640,
      "velope": 8641,
      "lament": 8642,
      "discri": 8643,
      "hire": 8644,
      "boy": 8645,
      "Nothing": 8646,
      "Both": 8647,
      "Station": 8648,
      "Joint": 8649,
      "Shechem": 8650,
      "Perform": 8651,
      "Respon": 8652,
      "commitment": 8653,
      "accepting": 8654,
      "teenth": 8655,
      "morrow": 8656,
      "estimates": 8657,
      "sorrow": 8658,
      "Tyre": 8659,
      "twice": 8660,
      "summer": 8661,
      "smoke": 8662,
      "pitude": 8663,
      "Plain": 8664,
      "composition": 8665,
      "Savings": 8666,
      "juta": 8667,
      "attract": 8668,
      "sibly": 8669,
      "turpitude": 8670,
      "treasures": 8671,
      "investigations": 8672,
      "irregularities": 8673,
      "August": 8674,
      "depreciation": 8675,
      "British": 8676,
      "deprived": 8677,
      "entrusted": 8678,
      "Everest": 8679,
      "Bhairahawa": 8680,
      "58": 8681,
      "Ali": 8682,
      "Bash": 8683,
      "Dif": 8684,
      "HO": 8685,
      "Mes": 8686,
      "Met": 8687,
      "Mak": 8688,
      "Rai": 8689,
      "courage": 8690,
      "dam": 8691,
      "eties": 8692,
      "gall": 8693,
      "games": 8694,
      "hung": 8695,
      "nic": 8696,
      "prou": 8697,
      "rated": 8698,
      "tham": 8699,
      "revision": 8700,
      "asset": 8701,
      "ica": 8702,
      "sele": 8703,
      "detained": 8704,
      "defiled": 8705,
      "sud": 8706,
      "consul": 8707,
      "console": 8708,
      "hasn": 8709,
      "dock": 8710,
      "computers": 8711,
      "disclose": 8712,
      "Exe": 8713,
      "posting": 8714,
      "Miner": 8715,
      "decry": 8716,
      "Jericho": 8717,
      "Computer": 8718,
      "Position": 8719,
      "Travel": 8720,
      "Abram": 8721,
      "sessions": 8722,
      "graphy": 8723,
      "ritory": 8724,
      "Jehu": 8725,
      "treaty": 8726,
      "turns": 8727,
      "Market": 8728,
      "Update": 8729,
      "assessed": 8730,
      "encoder": 8731,
      "divisions": 8732,
      "deceased": 8733,
      "convenience": 8734,
      "unique": 8735,
      "widely": 8736,
      "Objective": 8737,
      "desolation": 8738,
      "highlighted": 8739,
      "afflicted": 8740,
      "grieved": 8741,
      "Modify": 8742,
      "beneficiary": 8743,
      "interpretation": 8744,
      "ressions": 8745,
      "Against": 8746,
      "murder": 8747,
      "Browse": 8748,
      "endures": 8749,
      "Basic": 8750,
      "cherubim": 8751,
      "apostles": 8752,
      "Balaam": 8753,
      "Zedekiah": 8754,
      "proud": 8755,
      "Bond": 8756,
      "Ear": 8757,
      "Gul": 8758,
      "Mob": 8759,
      "Match": 8760,
      "bold": 8761,
      "cise": 8762,
      "cused": 8763,
      "ima": 8764,
      "lf": 8765,
      "pain": 8766,
      "uments": 8767,
      "recon": 8768,
      "ston": 8769,
      "maker": 8770,
      "urning": 8771,
      "hail": 8772,
      "rescu": 8773,
      "aming": 8774,
      "weeks": 8775,
      "autil": 8776,
      "mob": 8777,
      "ventive": 8778,
      "rick": 8779,
      "disput": 8780,
      "Undo": 8781,
      "symp": 8782,
      "Example": 8783,
      "cai": 8784,
      "lessly": 8785,
      "passwords": 8786,
      "subjected": 8787,
      "brook": 8788,
      "Album": 8789,
      "supports": 8790,
      "supporting": 8791,
      "engage": 8792,
      "controls": 8793,
      "maternity": 8794,
      "aware": 8795,
      "placing": 8796,
      "blas": 8797,
      "Weight": 8798,
      "Resize": 8799,
      "promoter": 8800,
      "dependence": 8801,
      "summary": 8802,
      "Automatic": 8803,
      "gazette": 8804,
      "difficulties": 8805,
      "Statement": 8806,
      "straight": 8807,
      "decrease": 8808,
      "hurt": 8809,
      "Profile": 8810,
      "patient": 8811,
      "strategy": 8812,
      "enforcement": 8813,
      "navig": 8814,
      "TRUE": 8815,
      "confirmation": 8816,
      "diversification": 8817,
      "Study": 8818,
      "Origin": 8819,
      "shortage": 8820,
      "Drinking": 8821,
      "Kanchan": 8822,
      "Expenses": 8823,
      "autilus": 8824,
      "(@": 8825,
      "69": 8826,
      "79": 8827,
      "Amar": 8828,
      "Actions": 8829,
      "DB": 8830,
      "KPilot": 8831,
      "Light": 8832,
      "PL": 8833,
      "Rap": 8834,
      "Scan": 8835,
      "SQL": 8836,
      "Tod": 8837,
      "Uri": 8838,
      "afores": 8839,
      "bles": 8840,
      "junk": 8841,
      "kne": 8842,
      "nick": 8843,
      "tip": 8844,
      "shoul": 8845,
      "cooperatives": 8846,
      "undo": 8847,
      "tear": 8848,
      "pled": 8849,
      "estly": 8850,
      "comprising": 8851,
      "wasn": 8852,
      "intending": 8853,
      "priv": 8854,
      "clou": 8855,
      "Decl": 8856,
      "accoun": 8857,
      "operates": 8858,
      "ankuta": 8859,
      "Unsupported": 8860,
      "suring": 8861,
      "talents": 8862,
      "accounting": 8863,
      "Serial": 8864,
      "donors": 8865,
      "donkeys": 8866,
      "occas": 8867,
      "residence": 8868,
      "depute": 8869,
      "industrialization": 8870,
      "Despite": 8871,
      "1978": 8872,
      "mime": 8873,
      "altars": 8874,
      "resolve": 8875,
      "safely": 8876,
      "Graph": 8877,
      "swap": 8878,
      "Restore": 8879,
      "adversely": 8880,
      "acquiring": 8881,
      "worshiped": 8882,
      "Records": 8883,
      "1956": 8884,
      "ranging": 8885,
      "relatively": 8886,
      "Keeping": 8887,
      "detect": 8888,
      "conceived": 8889,
      "College": 8890,
      "upgraded": 8891,
      "trumpet": 8892,
      "vocabulary": 8893,
      "Measurement": 8894,
      "Syrians": 8895,
      "Banglad": 8896,
      "Cancel": 8897,
      "Cottage": 8898,
      "sudden": 8899,
      "aforesaid": 8900,
      "1000": 8901,
      "Bre": 8902,
      "Base": 8903,
      "Cour": 8904,
      "Dol": 8905,
      "Fort": 8906,
      "MW": 8907,
      "atic": 8908,
      "rating": 8909,
      "tan": 8910,
      "inqu": 8911,
      "inese": 8912,
      "aniah": 8913,
      "tite": 8914,
      "anda": 8915,
      "ascus": 8916,
      "ico": 8917,
      "seize": 8918,
      "territory": 8919,
      "adjudicating": 8920,
      "anybody": 8921,
      "motive": 8922,
      "feeding": 8923,
      "prefix": 8924,
      "disaster": 8925,
      "discharging": 8926,
      "2020": 8927,
      "cuit": 8928,
      "aston": 8929,
      "boot": 8930,
      "wool": 8931,
      "partly": 8932,
      "Expe": 8933,
      "lawful": 8934,
      "terminate": 8935,
      "conduit": 8936,
      "seeks": 8937,
      "templ": 8938,
      "risks": 8939,
      "multitudes": 8940,
      "copied": 8941,
      "comfort": 8942,
      "Privile": 8943,
      "2043": 8944,
      "Citizens": 8945,
      "introduction": 8946,
      "Value": 8947,
      "drain": 8948,
      "altered": 8949,
      "jointly": 8950,
      "wonder": 8951,
      "Mailbox": 8952,
      "biotechnology": 8953,
      "detected": 8954,
      "touched": 8955,
      "virtual": 8956,
      "Efforts": 8957,
      "Memory": 8958,
      "threshold": 8959,
      "Africa": 8960,
      "calamity": 8961,
      "reminder": 8962,
      "Amorites": 8963,
      "Introdu": 8964,
      "Damascus": 8965,
      "Channel": 8966,
      "Bashan": 8967,
      "EL": 8968,
      "Rab": 8969,
      "ST": 8970,
      "Sin": 8971,
      "São": 8972,
      "bage": 8973,
      "dpi": 8974,
      "glo": 8975,
      "gap": 8976,
      "gifts": 8977,
      "hop": 8978,
      "rat": 8979,
      "twe": 8980,
      "zier": 8981,
      "….": 8982,
      "inth": 8983,
      "insp": 8984,
      "enforced": 8985,
      "tise": 8986,
      "reh": 8987,
      "forgotten": 8988,
      "mails": 8989,
      "makers": 8990,
      "noted": 8991,
      "aret": 8992,
      "dump": 8993,
      "ourselves": 8994,
      "oppos": 8995,
      "tains": 8996,
      "elder": 8997,
      "yearly": 8998,
      "2031": 8999,
      "accent": 9000,
      "Reload": 9001,
      "transmitted": 9002,
      "playlist": 9003,
      "tali": 9004,
      "generality": 9005,
      "voke": 9006,
      "exceeds": 9007,
      "northern": 9008,
      "greatest": 9009,
      "examinations": 9010,
      "punishments": 9011,
      "stron": 9012,
      "exporting": 9013,
      "partially": 9014,
      "Abner": 9015,
      "framework": 9016,
      "dividends": 9017,
      "achieving": 9018,
      "sounds": 9019,
      "pasture": 9020,
      "definition": 9021,
      "rendering": 9022,
      "encrypt": 9023,
      "Welcome": 9024,
      "proponents": 9025,
      "suffering": 9026,
      "corresponds": 9027,
      "ISO": 9028,
      "decree": 9029,
      "Profession": 9030,
      "consolidated": 9031,
      "refunded": 9032,
      "polygon": 9033,
      "numeric": 9034,
      "www": 9035,
      "Didn": 9036,
      "Assistant": 9037,
      "subsequent": 9038,
      "Himalayan": 9039,
      "extremely": 9040,
      "Schedules": 9041,
      "Pashupati": 9042,
      "Paulo": 9043,
      "IG": 9044,
      "Just": 9045,
      "Random": 9046,
      "Tam": 9047,
      "Tues": 9048,
      "Vol": 9049,
      "ahead": 9050,
      "cable": 9051,
      "dict": 9052,
      "fly": 9053,
      "kar": 9054,
      "ome": 9055,
      "zilla": 9056,
      "orah": 9057,
      "redeemed": 9058,
      "attained": 9059,
      "iture": 9060,
      "leak": 9061,
      "leprosy": 9062,
      "ropol": 9063,
      "forsake": 9064,
      "chap": 9065,
      "conference": 9066,
      "rah": 9067,
      "unleavened": 9068,
      "tative": 9069,
      "ays": 9070,
      "abling": 9071,
      "uber": 9072,
      "songs": 9073,
      "sockets": 9074,
      "Toky": 9075,
      "cles": 9076,
      "tenants": 9077,
      "hole": 9078,
      "readable": 9079,
      "puts": 9080,
      "airy": 9081,
      "Amal": 9082,
      "Being": 9083,
      "founded": 9084,
      "accountancy": 9085,
      "Stars": 9086,
      "edition": 9087,
      "Maintenance": 9088,
      "Almighty": 9089,
      "filling": 9090,
      "solute": 9091,
      "failing": 9092,
      "mostly": 9093,
      "blame": 9094,
      "happens": 9095,
      "OpenPGP": 9096,
      "ffers": 9097,
      "stumble": 9098,
      "Educational": 9099,
      "Birta": 9100,
      "scr": 9101,
      "score": 9102,
      "debtor": 9103,
      "recognize": 9104,
      "extract": 9105,
      "flowing": 9106,
      "prayed": 9107,
      "Restart": 9108,
      "inquiries": 9109,
      "Connect": 9110,
      "brief": 9111,
      "governor": 9112,
      "Horizontal": 9113,
      "Personal": 9114,
      "prospect": 9115,
      "Shime": 9116,
      "washed": 9117,
      "amendments": 9118,
      "Congress": 9119,
      "subsidiary": 9120,
      "baptized": 9121,
      "implements": 9122,
      "Diplo": 9123,
      "influence": 9124,
      "stroke": 9125,
      "Complaint": 9126,
      "Retrieving": 9127,
      "earthquake": 9128,
      "blasphe": 9129,
      "Tuesday": 9130,
      ",”": 9131,
      "67": 9132,
      "Cut": 9133,
      "Eight": 9134,
      "Hills": 9135,
      "Oath": 9136,
      "Pix": 9137,
      "Psalm": 9138,
      "TB": 9139,
      "Top": 9140,
      "Tux": 9141,
      "Wal": 9142,
      "gri": 9143,
      "hum": 9144,
      "lac": 9145,
      "mus": 9146,
      "ninety": 9147,
      "thick": 9148,
      "reap": 9149,
      "offee": 9150,
      "arising": 9151,
      "sect": 9152,
      "forces": 9153,
      "heap": 9154,
      "dee": 9155,
      "decai": 9156,
      "irous": 9157,
      "siah": 9158,
      "apartment": 9159,
      "ambi": 9160,
      "quite": 9161,
      "ops": 9162,
      "doms": 9163,
      "feared": 9164,
      "compassion": 9165,
      "spir": 9166,
      "vailable": 9167,
      "transform": 9168,
      "Chic": 9169,
      "States": 9170,
      "existence": 9171,
      "norms": 9172,
      "Banks": 9173,
      "risen": 9174,
      "functioning": 9175,
      "installing": 9176,
      "1987": 9177,
      "strings": 9178,
      "foodstuff": 9179,
      "attended": 9180,
      "regarded": 9181,
      "maximize": 9182,
      "Taking": 9183,
      "Empty": 9184,
      "wallet": 9185,
      "buddy": 9186,
      "relig": 9187,
      "mobilizing": 9188,
      "Support": 9189,
      "Expand": 9190,
      "devoured": 9191,
      "Tourist": 9192,
      "Everyone": 9193,
      "Surveyor": 9194,
      "launching": 9195,
      "attractive": 9196,
      "Vertical": 9197,
      "components": 9198,
      "North": 9199,
      "pillar": 9200,
      "translation": 9201,
      "Mordecai": 9202,
      "navigation": 9203,
      "instituted": 9204,
      "boost": 9205,
      "Summary": 9206,
      "challenges": 9207,
      "Improve": 9208,
      "gorith": 9209,
      "Enterprise": 9210,
      "Greek": 9211,
      "yoke": 9212,
      "Dhankuta": 9213,
      "renovation": 9214,
      "clouds": 9215,
      "Tokyo": 9216,
      "Case": 9217,
      "Fam": 9218,
      "FTP": 9219,
      "Gil": 9220,
      "HP": 9221,
      "IX": 9222,
      "Jab": 9223,
      "Miz": 9224,
      "NING": 9225,
      "SA": 9226,
      "Sir": 9227,
      "Sod": 9228,
      "Zaw": 9229,
      "clauses": 9230,
      "ifier": 9231,
      "pah": 9232,
      "pump": 9233,
      "envelope": 9234,
      "andak": 9235,
      "atal": 9236,
      "aro": 9237,
      "ascertain": 9238,
      "beam": 9239,
      "propri": 9240,
      "consequ": 9241,
      "vertically": 9242,
      "lien": 9243,
      "dues": 9244,
      "purple": 9245,
      "personally": 9246,
      "Nepa": 9247,
      "minim": 9248,
      "ministries": 9249,
      "subscribe": 9250,
      "angers": 9251,
      "contro": 9252,
      "desirous": 9253,
      "Anjuta": 9254,
      "reporting": 9255,
      "closure": 9256,
      "Once": 9257,
      "specialist": 9258,
      "ggles": 9259,
      "Otherwise": 9260,
      "Column": 9261,
      "waiting": 9262,
      "Interest": 9263,
      "silent": 9264,
      "practic": 9265,
      "quarantine": 9266,
      "gradual": 9267,
      "dropped": 9268,
      "aims": 9269,
      "corrupted": 9270,
      "Ayurveda": 9271,
      "demolish": 9272,
      "Pilate": 9273,
      "photographs": 9274,
      "horsemen": 9275,
      "challenge": 9276,
      "Immedi": 9277,
      "nakedness": 9278,
      "engraved": 9279,
      "Original": 9280,
      "Bangladesh": 9281,
      "120": 9282,
      "Images": 9283,
      "Jim": 9284,
      "Mission": 9285,
      "SM": 9286,
      "Sol": 9287,
      "nab": 9288,
      "sq": 9289,
      "enclosed": 9290,
      "tious": 9291,
      "references": 9292,
      "repaired": 9293,
      "strict": 9294,
      "defe": 9295,
      "superi": 9296,
      "convers": 9297,
      "ghold": 9298,
      "divide": 9299,
      "hash": 9300,
      "Seventy": 9301,
      "oppression": 9302,
      "kingdoms": 9303,
      "velopers": 9304,
      "minimize": 9305,
      "impacts": 9306,
      "Noah": 9307,
      "acher": 9308,
      "pron": 9309,
      "Unexpected": 9310,
      "Official": 9311,
      "distress": 9312,
      "porters": 9313,
      "decades": 9314,
      "passing": 9315,
      "votes": 9316,
      "fying": 9317,
      "cleans": 9318,
      "appellate": 9319,
      "Chairman": 9320,
      "writes": 9321,
      "2005": 9322,
      "logged": 9323,
      "stranger": 9324,
[...]
